{
  "version": "1.0",
  "truncation": {
    "direction": "Right",
    "max_length": 128,
    "strategy": "LongestFirst",
    "stride": 0
  },
  "padding": {
    "strategy": {
      "Fixed": 128
    },
    "direction": "Right",
    "pad_to_multiple_of": null,
    "pad_id": 0,
    "pad_type_id": 0,
    "pad_token": "<|endoftext|>"
  },
  "added_tokens": [
    {
      "id": 0,
      "content": "<|endoftext|>",
      "single_word": false,
      "lstrip": false,
      "rstrip": false,
      "normalized": false,
      "special": true
    }
  ],
  "normalizer": null,
  "pre_tokenizer": {
    "type": "ByteLevel",
    "add_prefix_space": false,
    "trim_offsets": true,
    "use_regex": true
  },
  "post_processor": {
    "type": "TemplateProcessing",
    "single": [
      {
        "Sequence": {
          "id": "A",
          "type_id": 0
        }
      }
    ],
    "pair": [
      {
        "Sequence": {
          "id": "A",
          "type_id": 0
        }
      },
      {
        "Sequence": {
          "id": "B",
          "type_id": 1
        }
      }
    ],
    "special_tokens": {}
  },
  "decoder": {
    "type": "ByteLevel",
    "add_prefix_space": true,
    "trim_offsets": true,
    "use_regex": true
  },
  "model": {
    "type": "BPE",
    "dropout": null,
    "unk_token": null,
    "continuing_subword_prefix": "",
    "end_of_word_suffix": "",
    "fuse_unk": false,
    "byte_fallback": false,
    "ignore_merges": false,
    "vocab": {
      "<|endoftext|>": 0,
      "!": 1,
      "\"": 2,
      "#": 3,
      "$": 4,
      "%": 5,
      "&": 6,
      "'": 7,
      "(": 8,
      ")": 9,
      "*": 10,
      "+": 11,
      ",": 12,
      "-": 13,
      ".": 14,
      "/": 15,
      "0": 16,
      "1": 17,
      "2": 18,
      "3": 19,
      "4": 20,
      "5": 21,
      "6": 22,
      "7": 23,
      "8": 24,
      "9": 25,
      ":": 26,
      ";": 27,
      "<": 28,
      "=": 29,
      ">": 30,
      "?": 31,
      "@": 32,
      "A": 33,
      "B": 34,
      "C": 35,
      "D": 36,
      "E": 37,
      "F": 38,
      "G": 39,
      "H": 40,
      "I": 41,
      "J": 42,
      "K": 43,
      "L": 44,
      "M": 45,
      "N": 46,
      "O": 47,
      "P": 48,
      "Q": 49,
      "R": 50,
      "S": 51,
      "T": 52,
      "U": 53,
      "V": 54,
      "W": 55,
      "X": 56,
      "Y": 57,
      "Z": 58,
      "[": 59,
      "\\": 60,
      "]": 61,
      "^": 62,
      "_": 63,
      "`": 64,
      "a": 65,
      "b": 66,
      "c": 67,
      "d": 68,
      "e": 69,
      "f": 70,
      "g": 71,
      "h": 72,
      "i": 73,
      "j": 74,
      "k": 75,
      "l": 76,
      "m": 77,
      "n": 78,
      "o": 79,
      "p": 80,
      "q": 81,
      "r": 82,
      "s": 83,
      "t": 84,
      "u": 85,
      "v": 86,
      "w": 87,
      "x": 88,
      "y": 89,
      "z": 90,
      "{": 91,
      "|": 92,
      "}": 93,
      "~": 94,
      "¡": 95,
      "¢": 96,
      "£": 97,
      "¤": 98,
      "¥": 99,
      "¦": 100,
      "§": 101,
      "¨": 102,
      "©": 103,
      "ª": 104,
      "«": 105,
      "¬": 106,
      "®": 107,
      "¯": 108,
      "°": 109,
      "±": 110,
      "²": 111,
      "³": 112,
      "´": 113,
      "µ": 114,
      "¶": 115,
      "·": 116,
      "¸": 117,
      "¹": 118,
      "º": 119,
      "»": 120,
      "¼": 121,
      "½": 122,
      "¾": 123,
      "¿": 124,
      "À": 125,
      "Á": 126,
      "Â": 127,
      "Ã": 128,
      "Ä": 129,
      "Å": 130,
      "Æ": 131,
      "Ç": 132,
      "È": 133,
      "É": 134,
      "Ê": 135,
      "Ë": 136,
      "Ì": 137,
      "Í": 138,
      "Î": 139,
      "Ï": 140,
      "Ð": 141,
      "Ñ": 142,
      "Ò": 143,
      "Ó": 144,
      "Ô": 145,
      "Õ": 146,
      "Ö": 147,
      "×": 148,
      "Ø": 149,
      "Ù": 150,
      "Ú": 151,
      "Û": 152,
      "Ü": 153,
      "Ý": 154,
      "Þ": 155,
      "ß": 156,
      "à": 157,
      "á": 158,
      "â": 159,
      "ã": 160,
      "ä": 161,
      "å": 162,
      "æ": 163,
      "ç": 164,
      "è": 165,
      "é": 166,
      "ê": 167,
      "ë": 168,
      "ì": 169,
      "í": 170,
      "î": 171,
      "ï": 172,
      "ð": 173,
      "ñ": 174,
      "ò": 175,
      "ó": 176,
      "ô": 177,
      "õ": 178,
      "ö": 179,
      "÷": 180,
      "ø": 181,
      "ù": 182,
      "ú": 183,
      "û": 184,
      "ü": 185,
      "ý": 186,
      "þ": 187,
      "ÿ": 188,
      "Ā": 189,
      "ā": 190,
      "Ă": 191,
      "ă": 192,
      "Ą": 193,
      "ą": 194,
      "Ć": 195,
      "ć": 196,
      "Ĉ": 197,
      "ĉ": 198,
      "Ċ": 199,
      "ċ": 200,
      "Č": 201,
      "č": 202,
      "Ď": 203,
      "ď": 204,
      "Đ": 205,
      "đ": 206,
      "Ē": 207,
      "ē": 208,
      "Ĕ": 209,
      "ĕ": 210,
      "Ė": 211,
      "ė": 212,
      "Ę": 213,
      "ę": 214,
      "Ě": 215,
      "ě": 216,
      "Ĝ": 217,
      "ĝ": 218,
      "Ğ": 219,
      "ğ": 220,
      "Ġ": 221,
      "ġ": 222,
      "Ģ": 223,
      "ģ": 224,
      "Ĥ": 225,
      "ĥ": 226,
      "Ħ": 227,
      "ħ": 228,
      "Ĩ": 229,
      "ĩ": 230,
      "Ī": 231,
      "ī": 232,
      "Ĭ": 233,
      "ĭ": 234,
      "Į": 235,
      "į": 236,
      "İ": 237,
      "ı": 238,
      "Ĳ": 239,
      "ĳ": 240,
      "Ĵ": 241,
      "ĵ": 242,
      "Ķ": 243,
      "ķ": 244,
      "ĸ": 245,
      "Ĺ": 246,
      "ĺ": 247,
      "Ļ": 248,
      "ļ": 249,
      "Ľ": 250,
      "ľ": 251,
      "Ŀ": 252,
      "ŀ": 253,
      "Ł": 254,
      "ł": 255,
      "Ń": 256,
      "Ġd": 257,
      "on": 258,
      "Ġc": 259,
      "er": 260,
      "Ġs": 261,
      "Ġa": 262,
      "Ġp": 263,
      "en": 264,
      "to": 265,
      "in": 266,
      "re": 267,
      "ti": 268,
      "ta": 269,
      "el": 270,
      "la": 271,
      "Ġdi": 272,
      "ri": 273,
      "ra": 274,
      "li": 275,
      "le": 276,
      "te": 277,
      "Ġe": 278,
      "an": 279,
      "Ġdel": 280,
      "zi": 281,
      "un": 282,
      "Ġn": 283,
      "Ġi": 284,
      "Ġm": 285,
      "ro": 286,
      "si": 287,
      "Ġin": 288,
      "he": 289,
      "or": 290,
      "Ġf": 291,
      "one": 292,
      "ia": 293,
      "es": 294,
      "ca": 295,
      "om": 296,
      "Ġun": 297,
      "Ġla": 298,
      "lo": 299,
      "Ġcon": 300,
      "Ġal": 301,
      "qu": 302,
      "Ġv": 303,
      "ar": 304,
      "os": 305,
      "Ġper": 306,
      "Ġil": 307,
      "gi": 308,
      "ci": 309,
      "men": 310,
      "Ġche": 311,
      "co": 312,
      "zione": 313,
      "al": 314,
      "Ġt": 315,
      "di": 316,
      "do": 317,
      "Ġqu": 318,
      "et": 319,
      "Ġri": 320,
      "ma": 321,
      "ĠC": 322,
      "so": 323,
      "Ġde": 324,
      "Ãł": 325,
      "gli": 326,
      "Ġsu": 327,
      "Ġl": 328,
      "za": 329,
      "ĠS": 330,
      "Ġo": 331,
      "is": 332,
      "va": 333,
      "no": 334,
      "Ã¨": 335,
      "Ġcom": 336,
      "Ġle": 337,
      "tu": 338,
      "Ġ1": 339,
      "Ġpro": 340,
      "vi": 341,
      "Ġdella": 342,
      "ter": 343,
      "ĠP": 344,
      "bi": 345,
      "sa": 346,
      "ol": 347,
      "oni": 348,
      "Ġsi": 349,
      "ĠÃ¨": 350,
      "ĠI": 351,
      "Ġg": 352,
      "Ġnel": 353,
      "mp": 354,
      "Ġda": 355,
      "se": 356,
      "ere": 357,
      "ĠL": 358,
      "ĠA": 359,
      "ono": 360,
      "tto": 361,
      "ĠM": 362,
      "ch": 363,
      "da": 364,
      "tÃł": 365,
      "Ġan": 366,
      "pp": 367,
      "ce": 368,
      "Ġre": 369,
      "Ġse": 370,
      "mo": 371,
      "che": 372,
      "vo": 373,
      "tra": 374,
      "Ġb": 375,
      "Ġ2": 376,
      "Ġ(": 377,
      "ale": 378,
      "ve": 379,
      "Ġnon": 380,
      "Ġpre": 381,
      "Ġma": 382,
      "Ġca": 383,
      "ni": 384,
      "fi": 385,
      "Ġuna": 386,
      "Ġh": 387,
      "tti": 388,
      "mi": 389,
      "era": 390,
      "..": 391,
      "ĠD": 392,
      "de": 393,
      "00": 394,
      "Ġdal": 395,
      "Ġso": 396,
      "mente": 397,
      "na": 398,
      "ano": 399,
      "sp": 400,
      "eri": 401,
      "Ġpo": 402,
      "bb": 403,
      "Ġ\"": 404,
      "ina": 405,
      "Ġpi": 406,
      "ente": 407,
      "ĠR": 408,
      "ĠG": 409,
      "Ġdei": 410,
      "cia": 411,
      "tro": 412,
      "mento": 413,
      "Ġfa": 414,
      "ui": 415,
      "Ġdell": 416,
      "ali": 417,
      "enti": 418,
      "ggi": 419,
      "zioni": 420,
      "Ġsta": 421,
      "ran": 422,
      "Ġgi": 423,
      "io": 424,
      "ĠB": 425,
      "zza": 426,
      "po": 427,
      "Ġpa": 428,
      "Ġpar": 429,
      "ĠT": 430,
      "uo": 431,
      "ĠN": 432,
      "ver": 433,
      "enza": 434,
      "Ġtra": 435,
      "tta": 436,
      "Ġvi": 437,
      "Ġdelle": 438,
      "ssi": 439,
      "ĠF": 440,
      "tori": 441,
      "ĠE": 442,
      "ga": 443,
      "Ġ-": 444,
      "con": 445,
      "Ġlo": 446,
      "Ġsp": 447,
      "âĢ": 448,
      "ss": 449,
      "ini": 450,
      "Ġci": 451,
      "tan": 452,
      "ul": 453,
      "tri": 454,
      "Ġques": 455,
      "Ġalla": 456,
      "cc": 457,
      "Ġdo": 458,
      "Ġte": 459,
      "ine": 460,
      "ten": 461,
      "Ġtu": 462,
      "ani": 463,
      "Ġra": 464,
      "Ġsono": 465,
      "tre": 466,
      "ru": 467,
      "go": 468,
      "Ã¹": 469,
      "Ġha": 470,
      "du": 471,
      "gg": 472,
      "ff": 473,
      "sti": 474,
      "Ġne": 475,
      "ino": 476,
      "endo": 477,
      "mb": 478,
      "me": 479,
      "pa": 480,
      "Ġu": 481,
      "ĠV": 482,
      "Ġ19": 483,
      "ero": 484,
      "ĠpiÃ¹": 485,
      "Ġcome": 486,
      "Ġcos": 487,
      "gu": 488,
      "Ġsul": 489,
      "Ġme": 490,
      "Ġmo": 491,
      "pi": 492,
      "hi": 493,
      "sso": 494,
      "chi": 495,
      "Ġall": 496,
      "rio": 497,
      "etto": 498,
      "Ġanche": 499,
      "Ġpu": 500,
      "--": 501,
      "Ġmi": 502,
      "Ġpri": 503,
      "Ġfor": 504,
      "Ġad": 505,
      "ĠLa": 506,
      "lu": 507,
      "Ġgli": 508,
      "ria": 509,
      "tura": 510,
      "sione": 511,
      "Ġpos": 512,
      "ando": 513,
      "Ġquel": 514,
      "ona": 515,
      "Ġli": 516,
      "tico": 517,
      "cu": 518,
      "sta": 519,
      "zia": 520,
      "uni": 521,
      "ĠIl": 522,
      "ene": 523,
      "bili": 524,
      "Ġcomp": 525,
      "enta": 526,
      "Ġ200": 527,
      "fica": 528,
      "Ġsc": 529,
      "uto": 530,
      "dia": 531,
      "anno": 532,
      "Ùį": 533,
      "Ġ3": 534,
      "ĠIn": 535,
      "etti": 536,
      "tali": 537,
      "Ġinter": 538,
      "Ġed": 539,
      "Ġimp": 540,
      "Ġnella": 541,
      "ĠU": 542,
      "Ġcui": 543,
      "ggio": 544,
      "Ġco": 545,
      "Ġav": 546,
      "zz": 547,
      "sc": 548,
      "Ġfi": 549,
      "st": 550,
      "pe": 551,
      "Ġdu": 552,
      "Ġar": 553,
      "ne": 554,
      "Ġapp": 555,
      "Ġess": 556,
      "onale": 557,
      "Ã©": 558,
      "are": 559,
      "ven": 560,
      "Ġai": 561,
      "menti": 562,
      "ww": 563,
      "ĠMa": 564,
      "Ġno": 565,
      "Ġprop": 566,
      "tt": 567,
      "glio": 568,
      "gna": 569,
      "gra": 570,
      "bbli": 571,
      "Ġter": 572,
      "tato": 573,
      "ĠO": 574,
      "Ġba": 575,
      "ssa": 576,
      "Ġalle": 577,
      "Ġparte": 578,
      "Ġcol": 579,
      "Ġdegli": 580,
      "for": 581,
      "ren": 582,
      "Ġna": 583,
      "Ġpres": 584,
      "bile": 585,
      "esso": 586,
      "__": 587,
      "Ġsuo": 588,
      "tte": 589,
      "Ġessere": 590,
      "gno": 591,
      "inis": 592,
      "tare": 593,
      "Ġcor": 594,
      "um": 595,
      "essi": 596,
      "Ġdalla": 597,
      "...": 598,
      "xt": 599,
      "ana": 600,
      "ele": 601,
      "tica": 602,
      "sid": 603,
      "zio": 604,
      "Ġti": 605,
      "gni": 606,
      "it": 607,
      "ze": 608,
      "text": 609,
      "ffi": 610,
      "|>": 611,
      "endof": 612,
      "<|": 613,
      "endoftext": 614,
      "Ġquesto": 615,
      "Ġchi": 616,
      "Ġva": 617,
      "dere": 618,
      "cio": 619,
      "Ġlavo": 620,
      "cor": 621,
      "ĠCa": 622,
      "per": 623,
      "Ġris": 624,
      "Ġta": 625,
      "ĠâĢ": 626,
      "tiva": 627,
      "us": 628,
      "tore": 629,
      "ĠCom": 630,
      "Ġfu": 631,
      "Ġ4": 632,
      "anti": 633,
      "Ùī": 634,
      "cco": 635,
      "sse": 636,
      "),": 637,
      "mm": 638,
      "Ġven": 639,
      "ĠCon": 640,
      "ttu": 641,
      "Ġvol": 642,
      "Ġsa": 643,
      "ĠH": 644,
      "ba": 645,
      "mpo": 646,
      "lare": 647,
      "rin": 648,
      "ĠPa": 649,
      "Ġor": 650,
      ").": 651,
      "ĠQ": 652,
      "Ġsia": 653,
      "uro": 654,
      "ppo": 655,
      "ĠRe": 656,
      "Ġgen": 657,
      "ese": 658,
      "glia": 659,
      "Ġdue": 660,
      "Ġpubbli": 661,
      "Ġsua": 662,
      "vol": 663,
      "Ġste": 664,
      "etta": 665,
      "Ġpers": 666,
      "Ġdis": 667,
      "bbe": 668,
      "ron": 669,
      "ello": 670,
      "Ġmol": 671,
      "essa": 672,
      "ĠLe": 673,
      "Ġ5": 674,
      "Ġanni": 675,
      "Ã²": 676,
      "----": 677,
      "chÃ©": 678,
      "tivo": 679,
      "Ġnuo": 680,
      "ge": 681,
      "anto": 682,
      "Ġloro": 683,
      "Ġto": 684,
      "Ġprima": 685,
      "Ġindi": 686,
      "Ġstato": 687,
      "ĠÂ": 688,
      "pera": 689,
      "cato": 690,
      "il": 691,
      "Ġvo": 692,
      "200": 693,
      "ĠAl": 694,
      "bo": 695,
      "Ġgra": 696,
      "Ġ,": 697,
      "res": 698,
      "via": 699,
      "Ġver": 700,
      "ante": 701,
      "tter": 702,
      "ena": 703,
      "Ġera": 704,
      "ĠQu": 705,
      "Ġbi": 706,
      "Ġser": 707,
      "Ġsolo": 708,
      "Ġgiu": 709,
      "Ġdire": 710,
      "gge": 711,
      "ĠPer": 712,
      "ur": 713,
      "Ġgior": 714,
      "man": 715,
      "zionale": 716,
      "Ġacc": 717,
      "ella": 718,
      "uta": 719,
      "//": 720,
      "Ġsemp": 721,
      "Ġrisp": 722,
      "que": 723,
      "cca": 724,
      "Ġtro": 725,
      "mbi": 726,
      "\",": 727,
      "mma": 728,
      "Ġhanno": 729,
      "dio": 730,
      "Ġdall": 731,
      "Ġ199": 732,
      "orta": 733,
      "ttp": 734,
      "://": 735,
      "tru": 736,
      "lan": 737,
      "Ġnell": 738,
      "forma": 739,
      "chia": 740,
      "der": 741,
      "vano": 742,
      "Ġat": 743,
      "Ġhttp": 744,
      "uti": 745,
      "âĢĻ": 746,
      "titu": 747,
      "Ġesp": 748,
      "Ġtutti": 749,
      "ĠSi": 750,
      "Ġsecon": 751,
      "fa": 752,
      "Ġregi": 753,
      "gia": 754,
      "esti": 755,
      "Ġmen": 756,
      "cer": 757,
      "Ġmon": 758,
      "vis": 759,
      "Ġgio": 760,
      "\".": 761,
      "sto": 762,
      "ink": 763,
      "onali": 764,
      "Ġdisp": 765,
      "ON": 766,
      "elli": 767,
      "zzo": 768,
      "mpi": 769,
      "Ġ6": 770,
      "Ġsulla": 771,
      "ĠAn": 772,
      "Ġen": 773,
      "Ġcre": 774,
      "ki": 775,
      "www": 776,
      "Ġnei": 777,
      "ĠJ": 778,
      "une": 779,
      "ĠSe": 780,
      "Ġspe": 781,
      "Ġsos": 782,
      "rie": 783,
      "Ġcontro": 784,
      "cip": 785,
      "01": 786,
      "ess": 787,
      "Ġes": 788,
      "ura": 789,
      "....": 790,
      "Ġcer": 791,
      "ing": 792,
      "vitÃł": 793,
      "Ġconf": 794,
      "mis": 795,
      "bilitÃł": 796,
      "Ġquali": 797,
      "Ġfin": 798,
      "Ġcen": 799,
      "Ġpoli": 800,
      "Ġrapp": 801,
      "Ġve": 802,
      "ĠW": 803,
      "ĠÂ«": 804,
      "gn": 805,
      "Ġgran": 806,
      "ad": 807,
      "ord": 808,
      "Ġcons": 809,
      "ette": 810,
      "ulti": 811,
      "Ġatti": 812,
      "zo": 813,
      "Ġpoi": 814,
      "Ġdopo": 815,
      "Ġquesta": 816,
      "Â»": 817,
      "etÃł": 818,
      "Ġrela": 819,
      "indi": 820,
      "Ġlegge": 821,
      "Ġstra": 822,
      "Ġqual": 823,
      "ĠK": 824,
      "Ġau": 825,
      "zzazione": 826,
      "Ġforma": 827,
      "Ġuno": 828,
      "ĠDi": 829,
      "inks": 830,
      "Ġpen": 831,
      "Ġpun": 832,
      "gui": 833,
      "esta": 834,
      "mina": 835,
      "mbre": 836,
      "Links": 837,
      "osta": 838,
      "colo": 839,
      "cen": 840,
      "Ġman": 841,
      "hia": 842,
      "cora": 843,
      "esa": 844,
      "Ġsen": 845,
      "Ġalc": 846,
      "Ġservi": 847,
      "cre": 848,
      "inistra": 849,
      "ĠGi": 850,
      "Ġro": 851,
      "tante": 852,
      "Ġsotto": 853,
      "versi": 854,
      "ER": 855,
      "Ġlib": 856,
      "Ġfatto": 857,
      "tive": 858,
      "Ġtempo": 859,
      "ffer": 860,
      "almente": 861,
      "Ġaltri": 862,
      "____": 863,
      "olo": 864,
      "Ġnelle": 865,
      "ĠPro": 866,
      "âĢĿ": 867,
      "Ġfon": 868,
      "ĠâĢľ": 869,
      "Ġpossi": 870,
      "feri": 871,
      "inter": 872,
      "Ġfe": 873,
      "iki": 874,
      "ciale": 875,
      "azione": 876,
      "Ġfra": 877,
      "Ġlavoro": 878,
      "pre": 879,
      "Ġstu": 880,
      "Ġquanto": 881,
      "Ġsempre": 882,
      "orto": 883,
      "ĠMi": 884,
      "menta": 885,
      "ticolo": 886,
      "anza": 887,
      "Ġnos": 888,
      "Ġabb": 889,
      "Ġcan": 890,
      "tivi": 891,
      "Ġtutto": 892,
      "art": 893,
      "ritto": 894,
      "Ġel": 895,
      "Ġgu": 896,
      "vin": 897,
      "omi": 898,
      "Ġuni": 899,
      "Ġ.": 900,
      "Ġdov": 901,
      "Ġquello": 902,
      "Ġ7": 903,
      "at": 904,
      "gani": 905,
      "trib": 906,
      "Ġquale": 907,
      "Ġcomuni": 908,
      "pedia": 909,
      "Ġogni": 910,
      "enze": 911,
      "Ġdove": 912,
      "tiche": 913,
      "com": 914,
      "Il": 915,
      "!!": 916,
      "denti": 917,
      "omen": 918,
      "ikipedia": 919,
      "Wikipedia": 920,
      "cazione": 921,
      "Ġitali": 922,
      "oma": 923,
      "Ġave": 924,
      "Ġ18": 925,
      "ie": 926,
      "Ġquando": 927,
      "Ġsin": 928,
      "Ġquesti": 929,
      "iste": 930,
      "ccia": 931,
      "dente": 932,
      "tati": 933,
      "osa": 934,
      "Ġmolto": 935,
      "Ġchia": 936,
      "talia": 937,
      "Ġsca": 938,
      "Ġmar": 939,
      "osi": 940,
      "Ġvia": 941,
      "Ġmaggio": 942,
      "Ġprog": 943,
      "Ġparti": 944,
      "ttura": 945,
      "Ġfar": 946,
      "Ġcontra": 947,
      "Ġancora": 948,
      "col": 949,
      "Ġsenza": 950,
      "Ġquella": 951,
      "Ġga": 952,
      "La": 953,
      "tin": 954,
      "unque": 955,
      "tr": 956,
      "Ġcar": 957,
      "Ġsucc": 958,
      "ĠAr": 959,
      "Ġ0": 960,
      "ciali": 961,
      "ista": 962,
      "Ġ10": 963,
      "esi": 964,
      "osto": 965,
      "qui": 966,
      "pra": 967,
      "Ġcir": 968,
      "iamo": 969,
      "19": 970,
      "Ġini": 971,
      "Ġprof": 972,
      "ĠNel": 973,
      "ck": 974,
      "EN": 975,
      "Ġstori": 976,
      "mer": 977,
      "ĠRi": 978,
      "gione": 979,
      "Ġdello": 980,
      "Ġnum": 981,
      "tanto": 982,
      "rig": 983,
      "Ġcri": 984,
      "Ġsecondo": 985,
      "ato": 986,
      "gono": 987,
      "Ġtras": 988,
      "Ġstru": 989,
      "TO": 990,
      "Ġvita": 991,
      "ĠperchÃ©": 992,
      "Ġsco": 993,
      "Ġdai": 994,
      "tili": 995,
      "Ġdes": 996,
      "razione": 997,
      "Ġ9": 998,
      "TI": 999,
      "Ġprimo": 1000,
      "ĠgiÃł": 1001,
      "tere": 1002,
      "ltre": 1003,
      "Ġstata": 1004,
      "Ġos": 1005,
      "Ġeuro": 1006,
      "tamente": 1007,
      "zzi": 1008,
      "Ġten": 1009,
      "AN": 1010,
      "ome": 1011,
      "tanti": 1012,
      "ure": 1013,
      "cci": 1014,
      "stitu": 1015,
      "Ġ8": 1016,
      "Ġviene": 1017,
      "ggiun": 1018,
      "pri": 1019,
      "ĠPre": 1020,
      "stra": 1021,
      "Ġcomple": 1022,
      "Ġ15": 1023,
      "Ġpartico": 1024,
      "Ġstesso": 1025,
      "sci": 1026,
      "over": 1027,
      "Ġcaso": 1028,
      "sioni": 1029,
      "sidente": 1030,
      "Ġmili": 1031,
      "ht": 1032,
      "lmente": 1033,
      "ĠMar": 1034,
      "Ġlu": 1035,
      "ĠNon": 1036,
      "rono": 1037,
      "uno": 1038,
      "cchi": 1039,
      "Ġfare": 1040,
      "teria": 1041,
      "mministra": 1042,
      "Ġnor": 1043,
      "Ġproprio": 1044,
      "Ġsiste": 1045,
      "rato": 1046,
      "Ġmodo": 1047,
      "Ġho": 1048,
      "Ġsal": 1049,
      "and": 1050,
      "ggia": 1051,
      "Ġposs": 1052,
      "Ġfun": 1053,
      "pen": 1054,
      "Ġcomma": 1055,
      "Ġtec": 1056,
      "Ġese": 1057,
      "Ġmis": 1058,
      "Ġprin": 1059,
      "Ġsopra": 1060,
      "guar": 1061,
      "Ġtre": 1062,
      "cali": 1063,
      "Ġallo": 1064,
      "Ġdalle": 1065,
      "Ġsol": 1066,
      "ane": 1067,
      "ĠNa": 1068,
      "erva": 1069,
      "ble": 1070,
      "arti": 1071,
      "ela": 1072,
      "anta": 1073,
      "Ġpresenta": 1074,
      "Ġ>": 1075,
      "Ġquindi": 1076,
      "usi": 1077,
      "rante": 1078,
      "Ġeff": 1079,
      "erra": 1080,
      "AR": 1081,
      "ĠcosÙī": 1082,
      "ha": 1083,
      "Ġ12": 1084,
      "Ġnec": 1085,
      "una": 1086,
      "Ġagli": 1087,
      "esto": 1088,
      "torio": 1089,
      "ĠDa": 1090,
      "articolo": 1091,
      "Ġdice": 1092,
      "Ġopera": 1093,
      "zionali": 1094,
      "Ġaltre": 1095,
      "Ġreali": 1096,
      "Ġfino": 1097,
      "Ġfine": 1098,
      "rÃł": 1099,
      "tor": 1100,
      "tina": 1101,
      "asi": 1102,
      "Ġdeci": 1103,
      "Ġtratta": 1104,
      "Ġmondo": 1105,
      "Ġesi": 1106,
      "LI": 1107,
      "--------": 1108,
      "rare": 1109,
      "imp": 1110,
      "ĠSa": 1111,
      "Ġac": 1112,
      "Ġorgani": 1113,
      "lazione": 1114,
      "Ġaff": 1115,
      "Ġcapi": 1116,
      "ĠVi": 1117,
      "Ġrip": 1118,
      "Ġ:": 1119,
      "Ġer": 1120,
      "zie": 1121,
      "Ġutili": 1122,
      "Ġricor": 1123,
      "ort": 1124,
      "fini": 1125,
      "rsi": 1126,
      "Ġrappres": 1127,
      "fer": 1128,
      "edi": 1129,
      "ore": 1130,
      "verso": 1131,
      "Ġinforma": 1132,
      "usa": 1133,
      "Ġprodu": 1134,
      "tici": 1135,
      "vilu": 1136,
      "vere": 1137,
      "Ġricer": 1138,
      "TA": 1139,
      "dre": 1140,
      "Ġproble": 1141,
      "Ġconc": 1142,
      "Ġvolta": 1143,
      "Ġ201": 1144,
      "Ġbu": 1145,
      "Ġrisul": 1146,
      "elle": 1147,
      "tolo": 1148,
      "ber": 1149,
      "lia": 1150,
      "ste": 1151,
      "Ġben": 1152,
      "Ġcara": 1153,
      "gre": 1154,
      "Ġtrova": 1155,
      "ĠPi": 1156,
      "Ġconos": 1157,
      "Ġspa": 1158,
      "care": 1159,
      "EL": 1160,
      "Ġgrande": 1161,
      "gola": 1162,
      "Ġcostitu": 1163,
      "elo": 1164,
      "Ġgru": 1165,
      "ranno": 1166,
      "ghi": 1167,
      "missione": 1168,
      "smo": 1169,
      "Ġdom": 1170,
      "ed": 1171,
      "orre": 1172,
      "Ġmentre": 1173,
      "ĠPo": 1174,
      "Ġrichi": 1175,
      "omo": 1176,
      "Ġprogra": 1177,
      "Ġpassa": 1178,
      "Ġcondi": 1179,
      "Ġterri": 1180,
      "Ġsvilu": 1181,
      "cch": 1182,
      "ĠDe": 1183,
      "scia": 1184,
      "Ġele": 1185,
      "esse": 1186,
      "htm": 1187,
      "Ġcit": 1188,
      "ultura": 1189,
      "pu": 1190,
      "Ġ'": 1191,
      "ĠUn": 1192,
      "erie": 1193,
      "Ġsuoi": 1194,
      "Ġtor": 1195,
      "Ġsegui": 1196,
      "anda": 1197,
      "Ġnumero": 1198,
      "ziona": 1199,
      "tero": 1200,
      "Ġcolle": 1201,
      "etro": 1202,
      "Ġsistema": 1203,
      "Ġassi": 1204,
      "gua": 1205,
      "ĠBa": 1206,
      "Ġass": 1207,
      "ffici": 1208,
      "ssione": 1209,
      "Ġdeve": 1210,
      "Ġcla": 1211,
      "Ġ14": 1212,
      "tazione": 1213,
      "gen": 1214,
      "ton": 1215,
      "val": 1216,
      "Ġterm": 1217,
      "Ġmani": 1218,
      "Ġ16": 1219,
      "Ġprevis": 1220,
      "ĠSo": 1221,
      "spon": 1222,
      "gio": 1223,
      "ĠDo": 1224,
      "Ġ11": 1225,
      "Ġmedi": 1226,
      "Ġcontin": 1227,
      "creto": 1228,
      "orte": 1229,
      "Ġaveva": 1230,
      "Ġspeci": 1231,
      "Ġ17": 1232,
      "Ġfami": 1233,
      "lio": 1234,
      "eli": 1235,
      "ĠCi": 1236,
      "ostra": 1237,
      "ĠcittÃł": 1238,
      "vamente": 1239,
      "zzato": 1240,
      "eter": 1241,
      "lla": 1242,
      "ĠLo": 1243,
      "citÃł": 1244,
      "Ã¬": 1245,
      "fatti": 1246,
      "ĠRa": 1247,
      "Ġsvol": 1248,
      "Ġconsid": 1249,
      "Ġsegu": 1250,
      "Ġlun": 1251,
      "OR": 1252,
      "mpa": 1253,
      "Ġfil": 1254,
      "Ġcaratter": 1255,
      "tale": 1256,
      "Ġcosa": 1257,
      "vece": 1258,
      "Ġmateria": 1259,
      "cri": 1260,
      "Ġval": 1261,
      "oso": 1262,
      "Ġbene": 1263,
      "overno": 1264,
      "Ġ13": 1265,
      "ĠattivitÃł": 1266,
      "Ġtutte": 1267,
      "Ġsar": 1268,
      "ei": 1269,
      "ĠDI": 1270,
      "Ġsuccessi": 1271,
      "Ġprincip": 1272,
      "Ġricerca": 1273,
      "erci": 1274,
      "Ġattra": 1275,
      "anzia": 1276,
      "tanza": 1277,
      "peri": 1278,
      "000": 1279,
      "ĠFran": 1280,
      "ES": 1281,
      "litÃł": 1282,
      "orti": 1283,
      "llo": 1284,
      "Ġbase": 1285,
      "Ġnuovo": 1286,
      "Ġpossono": 1287,
      "Ġperio": 1288,
      "sizione": 1289,
      "Ġpresente": 1290,
      "Ġoltre": 1291,
      "mato": 1292,
      "Ġsoci": 1293,
      "Ġarri": 1294,
      "Ġpunto": 1295,
      "Ġsitu": 1296,
      "amo": 1297,
      "Ġscri": 1298,
      "Ġ20": 1299,
      "ell": 1300,
      "Ġinf": 1301,
      "ard": 1302,
      "Ġstati": 1303,
      "dato": 1304,
      "siglio": 1305,
      "Ġr": 1306,
      "ssocia": 1307,
      "Ġparticolare": 1308,
      "Ġpia": 1309,
      "Ġdefini": 1310,
      "tario": 1311,
      "Ġriguar": 1312,
      "Ġscuo": 1313,
      "ssimo": 1314,
      "Ġmai": 1315,
      "lari": 1316,
      "bre": 1317,
      "Ġcal": 1318,
      "Ġrispetto": 1319,
      "lica": 1320,
      "Ġ[": 1321,
      "omento": 1322,
      "denza": 1323,
      "glie": 1324,
      "Ġpresso": 1325,
      "venti": 1326,
      "ĠâĢĵ": 1327,
      "Ġinvece": 1328,
      "ĠUni": 1329,
      "dica": 1330,
      "erale": 1331,
      "In": 1332,
      "isce": 1333,
      "ĠFi": 1334,
      "ccu": 1335,
      "Ġdiver": 1336,
      "Ġpopo": 1337,
      "Ġconten": 1338,
      "mpio": 1339,
      "ĠLi": 1340,
      "Ġora": 1341,
      "Ġappro": 1342,
      "use": 1343,
      "sie": 1344,
      "vole": 1345,
      "Ġconse": 1346,
      "Ġsui": 1347,
      "meri": 1348,
      "ĠItalia": 1349,
      "Ġliv": 1350,
      "ĠCo": 1351,
      "au": 1352,
      "isto": 1353,
      "IN": 1354,
      "zzare": 1355,
      "Ġag": 1356,
      "Ġecon": 1357,
      "Ġporta": 1358,
      "Ġgiorni": 1359,
      "rico": 1360,
      "ggior": 1361,
      "Ġproce": 1362,
      "Ġrin": 1363,
      "ttore": 1364,
      "Ġtale": 1365,
      "Ġins": 1366,
      "dare": 1367,
      "Ġfo": 1368,
      "ho": 1369,
      "Ġsci": 1370,
      "Ġtecni": 1371,
      "Ġsti": 1372,
      "Ġore": 1373,
      "Ġimpor": 1374,
      "Ġalcuni": 1375,
      "fo": 1376,
      "ZI": 1377,
      "Ġmodi": 1378,
      "Ġauto": 1379,
      "Ġsicu": 1380,
      "teri": 1381,
      "Ġconte": 1382,
      "uzione": 1383,
      "vato": 1384,
      "Ġ198": 1385,
      "ĠMo": 1386,
      "ĠRo": 1387,
      "arsi": 1388,
      "Ġoggi": 1389,
      "Ġpersone": 1390,
      "tando": 1391,
      "Ġsulle": 1392,
      "Ġ2004": 1393,
      "ĠSu": 1394,
      "Ġpicco": 1395,
      "cale": 1396,
      "Ġ2005": 1397,
      "Â».": 1398,
      "ĠsarÃł": 1399,
      "gato": 1400,
      "Ġdecreto": 1401,
      "Ġsare": 1402,
      "Ġanno": 1403,
      "rebbe": 1404,
      "Ġprov": 1405,
      "ĠRoma": 1406,
      "dono": 1407,
      "app": 1408,
      "Ġentra": 1409,
      "Ġtele": 1410,
      "mon": 1411,
      "tion": 1412,
      "ĠX": 1413,
      "ĠSan": 1414,
      "Ġeurope": 1415,
      "Ġfilm": 1416,
      "tten": 1417,
      "cano": 1418,
      "Ġlegi": 1419,
      "Ġsull": 1420,
      "âĢ¦": 1421,
      "Ġricon": 1422,
      "Ġnecessa": 1423,
      "ĠMinis": 1424,
      "10": 1425,
      "ĠFa": 1426,
      "Ġgiorno": 1427,
      "Ġtutta": 1428,
      "tari": 1429,
      "ute": 1430,
      "ĠMon": 1431,
      "ĠNo": 1432,
      "Ġcultura": 1433,
      "Ġistitu": 1434,
      "anni": 1435,
      "Ġlavora": 1436,
      "II": 1437,
      "Ġprodo": 1438,
      "lano": 1439,
      "ĠNe": 1440,
      "Ġservizio": 1441,
      "Ġvin": 1442,
      "rica": 1443,
      "Ġaltro": 1444,
      "**": 1445,
      "Ġamministra": 1446,
      "esco": 1447,
      "Ġmeno": 1448,
      "Â°": 1449,
      "Ġdon": 1450,
      "Ġdiv": 1451,
      "Ġopp": 1452,
      "ĠZ": 1453,
      "stru": 1454,
      "meno": 1455,
      "Ġaver": 1456,
      "Ġcorso": 1457,
      "Ġprogramma": 1458,
      "ĠChi": 1459,
      "Ġlimi": 1460,
      "Ġverso": 1461,
      "Ġpe": 1462,
      "ĠStato": 1463,
      "Ġnatura": 1464,
      "scri": 1465,
      "Ġeconomi": 1466,
      "lore": 1467,
      "ire": 1468,
      "Ġnorma": 1469,
      "tano": 1470,
      "Ġz": 1471,
      "Ġinte": 1472,
      "Ġambi": 1473,
      "ordina": 1474,
      "Ġgiov": 1475,
      "Ġmer": 1476,
      "Ġgesti": 1477,
      "ddi": 1478,
      "Ġnegli": 1479,
      "Ġconsidera": 1480,
      "Ġprece": 1481,
      "Ġerano": 1482,
      "Ġedi": 1483,
      "Ġnazionale": 1484,
      "11": 1485,
      "as": 1486,
      "Ġdisposi": 1487,
      "Ġletter": 1488,
      "cipa": 1489,
      "cono": 1490,
      "Ġinizia": 1491,
      "ĠPar": 1492,
      "Ġio": 1493,
      "all": 1494,
      "Ġlui": 1495,
      "ture": 1496,
      "Ġpubblica": 1497,
      "Ġord": 1498,
      "Ġgiudi": 1499,
      "Ġpersona": 1500,
      "Ġevi": 1501,
      "Ġveri": 1502,
      "Ġcasa": 1503,
      "Ġ30": 1504,
      "mbra": 1505,
      "id": 1506,
      "fici": 1507,
      "Ġmusi": 1508,
      "vero": 1509,
      "Ġstoria": 1510,
      "TE": 1511,
      "ttad": 1512,
      "Ġdocu": 1513,
      "Ġnome": 1514,
      "ac": 1515,
      "Ġnoi": 1516,
      "Ġgruppo": 1517,
      "________": 1518,
      "altro": 1519,
      "lato": 1520,
      "ĠCar": 1521,
      "bbero": 1522,
      "ut": 1523,
      "Ġregola": 1524,
      "met": 1525,
      "Ġservizi": 1526,
      "2005": 1527,
      "ĠsocietÃł": 1528,
      "line": 1529,
      "oste": 1530,
      "Ġpor": 1531,
      "ĠGa": 1532,
      "mmi": 1533,
      "Ġfinanzia": 1534,
      "Ġpossibile": 1535,
      "Ġriferi": 1536,
      "IA": 1537,
      "opera": 1538,
      "Ġqualche": 1539,
      "Ġtri": 1540,
      "Ġseguito": 1541,
      "Ġparo": 1542,
      "ĠLu": 1543,
      "Ġesa": 1544,
      "Ġulti": 1545,
      "Ġdata": 1546,
      "Ġinfatti": 1547,
      "Ġproc": 1548,
      "Ġsoli": 1549,
      "Ġattraverso": 1550,
      "rezza": 1551,
      "Ġmet": 1552,
      "LE": 1553,
      "ose": 1554,
      "Ġsue": 1555,
      "Ġstessa": 1556,
      "Ġ2003": 1557,
      "Ġfer": 1558,
      "Ġruo": 1559,
      "Ġfonda": 1560,
      "ziale": 1561,
      "zien": 1562,
      "12": 1563,
      "cra": 1564,
      "ĠTu": 1565,
      "Ġasp": 1566,
      "ea": 1567,
      "Ġmomento": 1568,
      "Ġperiodo": 1569,
      "IS": 1570,
      "Ġcontinu": 1571,
      "Ġtipo": 1572,
      "ttutto": 1573,
      "atti": 1574,
      "Ġrappresenta": 1575,
      "gere": 1576,
      "Ġfos": 1577,
      "IC": 1578,
      "gine": 1579,
      "Ġquelle": 1580,
      "logi": 1581,
      "Ġattu": 1582,
      "Ġinterna": 1583,
      "Ġcirca": 1584,
      "vento": 1585,
      "lina": 1586,
      "Ġsette": 1587,
      "Ġincon": 1588,
      "Ġdichia": 1589,
      "Ġpolitica": 1590,
      "Ġcompa": 1591,
      "vono": 1592,
      "dimento": 1593,
      "Ġfavo": 1594,
      "stica": 1595,
      "Ġserie": 1596,
      "Ġgenerale": 1597,
      "Ġabi": 1598,
      "Ġquelli": 1599,
      "Ġseconda": 1600,
      "Ġstan": 1601,
      "Ġposto": 1602,
      "sce": 1603,
      "sia": 1604,
      "Ġren": 1605,
      "sieme": 1606,
      "rata": 1607,
      "cce": 1608,
      "Ġcittad": 1609,
      "Ġsogg": 1610,
      "sla": 1611,
      "Ġpartecipa": 1612,
      "tino": 1613,
      "pere": 1614,
      "acc": 1615,
      "Ġmiglio": 1616,
      "Ġscel": 1617,
      "ambi": 1618,
      "Ġscon": 1619,
      "uso": 1620,
      "Ġcolla": 1621,
      "ghe": 1622,
      "Ġdurante": 1623,
      "den": 1624,
      "ccio": 1625,
      "qua": 1626,
      "Ġprogetto": 1627,
      "moni": 1628,
      "stri": 1629,
      "30": 1630,
      "cere": 1631,
      "Ġdiritto": 1632,
      "Ġfuo": 1633,
      "ĠConsiglio": 1634,
      "Ġinten": 1635,
      "Ġcompi": 1636,
      "Ġcentro": 1637,
      "Ġmio": 1638,
      "Ġguerra": 1639,
      "Ġpren": 1640,
      "Ġmolti": 1641,
      "ccupa": 1642,
      "Ġluo": 1643,
      "Ġnuova": 1644,
      "Ġprovin": 1645,
      "eno": 1646,
      "Ġfre": 1647,
      "Ġ25": 1648,
      "vio": 1649,
      "Ġcomune": 1650,
      "este": 1651,
      "ĠGio": 1652,
      "ppa": 1653,
      "Ġdeter": 1654,
      "ĠCos": 1655,
      "Ġsoprattutto": 1656,
      "Ġlivello": 1657,
      "ws": 1658,
      "ettore": 1659,
      "Ġprovve": 1660,
      "mana": 1661,
      "Uni": 1662,
      "Ġqueste": 1663,
      "tata": 1664,
      "ll": 1665,
      "Ġcontrib": 1666,
      "Ġorig": 1667,
      "cente": 1668,
      "Ġlin": 1669,
      "orso": 1670,
      "Ġpotre": 1671,
      "Ġcomunque": 1672,
      "Ġqui": 1673,
      "Ġdicembre": 1674,
      "Ġavere": 1675,
      "Ġconcor": 1676,
      "cos": 1677,
      "Ġ2002": 1678,
      "zzata": 1679,
      "onda": 1680,
      "bbi": 1681,
      "Ġden": 1682,
      "Ġcompet": 1683,
      "Ġpubblico": 1684,
      "th": 1685,
      "ĠCommissione": 1686,
      "RA": 1687,
      "lori": 1688,
      "Ġmod": 1689,
      "quad": 1690,
      "ph": 1691,
      "Ġlocali": 1692,
      "Ġpiu": 1693,
      "LA": 1694,
      "ĠTra": 1695,
      "Ġterritorio": 1696,
      "rre": 1697,
      "Ġ...": 1698,
      "Ġesempio": 1699,
      "Ġraggiun": 1700,
      "sponsa": 1701,
      "Ġ21": 1702,
      "Ġraga": 1703,
      "orse": 1704,
      "Ġov": 1705,
      "Ġprote": 1706,
      "Ġsviluppo": 1707,
      "gh": 1708,
      "Ġsembra": 1709,
      "poli": 1710,
      "Ġw": 1711,
      "Ġline": 1712,
      "vare": 1713,
      "Ġpersonale": 1714,
      "Ġbamb": 1715,
      "âĤ": 1716,
      "Ġdati": 1717,
      "âĤ¬": 1718,
      "Ġproblema": 1719,
      "Ġpes": 1720,
      "Ġtanto": 1721,
      "mu": 1722,
      "versitÃł": 1723,
      "ari": 1724,
      "stenza": 1725,
      "Ġsempli": 1726,
      "Ġprofessi": 1727,
      "Ġsensi": 1728,
      "Ġsenti": 1729,
      "Ġnostro": 1730,
      "20": 1731,
      "ede": 1732,
      "Ġindivi": 1733,
      "fiche": 1734,
      "est": 1735,
      "Ġclassi": 1736,
      "Ġriconos": 1737,
      "ĠBer": 1738,
      "RE": 1739,
      "Ġ24": 1740,
      "Ġ197": 1741,
      "Ġapri": 1742,
      "Ġpoco": 1743,
      "ĠInter": 1744,
      "gnifica": 1745,
      "Ġotto": 1746,
      "ettu": 1747,
      "Ġpra": 1748,
      "omina": 1749,
      "ficazione": 1750,
      "cita": 1751,
      "Ġann": 1752,
      "Ġresponsa": 1753,
      "eria": 1754,
      "RO": 1755,
      "Ġautori": 1756,
      "Ġcivi": 1757,
      "cro": 1758,
      "uncia": 1759,
      "Ġscuola": 1760,
      "........": 1761,
      "gue": 1762,
      "chÃ¨": 1763,
      "cina": 1764,
      "Ġconta": 1765,
      "Ġquasi": 1766,
      "Ġdiventa": 1767,
      "coli": 1768,
      "Ġcausa": 1769,
      "quo": 1770,
      "Nel": 1771,
      "Ġ23": 1772,
      "ĠGli": 1773,
      "Ġimpre": 1774,
      "Ġ2001": 1775,
      "Ġcampi": 1776,
      "Ġmia": 1777,
      "Ġdif": 1778,
      "Ġpresidente": 1779,
      "Ġ22": 1780,
      "Ġqualc": 1781,
      "Ġluglio": 1782,
      "Ġtitolo": 1783,
      "cati": 1784,
      "Ġgiorna": 1785,
      "ordo": 1786,
      "naio": 1787,
      "Ã¢": 1788,
      "gina": 1789,
      "Ġotten": 1790,
      "ĠMe": 1791,
      "min": 1792,
      "ĠPresidente": 1793,
      "ĠEn": 1794,
      "ĠEuro": 1795,
      "Ġban": 1796,
      "posi": 1797,
      "Ġ|": 1798,
      "ssima": 1799,
      "Ġvolte": 1800,
      "ulla": 1801,
      "ONE": 1802,
      "Ġsarebbe": 1803,
      "Ġsignifica": 1804,
      "fico": 1805,
      "erÃł": 1806,
      "Ġfron": 1807,
      "Ġpropria": 1808,
      "Ġmarzo": 1809,
      "Ġtermine": 1810,
      "attro": 1811,
      "Ġgiugno": 1812,
      "Ġinsieme": 1813,
      "Ġbiso": 1814,
      "Ġdetto": 1815,
      "Ġformazione": 1816,
      "Ġ2000": 1817,
      "rale": 1818,
      "Ġvisi": 1819,
      "oltre": 1820,
      "Ġpara": 1821,
      "Ġconfron": 1822,
      "Ġarti": 1823,
      "ĠTi": 1824,
      "Ġesc": 1825,
      "mbia": 1826,
      "ĠY": 1827,
      "fia": 1828,
      "stico": 1829,
      "ppi": 1830,
      "terio": 1831,
      "Ġaggiun": 1832,
      "cchia": 1833,
      "ĠDEL": 1834,
      "taria": 1835,
      "bbra": 1836,
      "dÙī": 1837,
      "Ġk": 1838,
      "Ġon": 1839,
      "ĠBi": 1840,
      "Ġfini": 1841,
      "altra": 1842,
      "ĠUna": 1843,
      "Ġstabili": 1844,
      "pubbli": 1845,
      "Ġlettera": 1846,
      "Ġsociale": 1847,
      "Ġness": 1848,
      "asp": 1849,
      "trice": 1850,
      "Ġquo": 1851,
      "interno": 1852,
      "Ġcin": 1853,
      "alle": 1854,
      "Ġpiano": 1855,
      "Ġsenso": 1856,
      "dotta": 1857,
      "Ġbo": 1858,
      "Ġdiversi": 1859,
      "gare": 1860,
      "Ġminis": 1861,
      "Ġconsi": 1862,
      "OM": 1863,
      "Ġsede": 1864,
      "ritti": 1865,
      "ppe": 1866,
      "Ġnove": 1867,
      "Ġecc": 1868,
      "05": 1869,
      "eb": 1870,
      "Ġstudio": 1871,
      "Ġruolo": 1872,
      "Ġspesso": 1873,
      "Ġreal": 1874,
      "bito": 1875,
      "anis": 1876,
      "Ġalcune": 1877,
      "Ġvenne": 1878,
      "Ġgaran": 1879,
      "Ġsiano": 1880,
      "tar": 1881,
      "Ġcollabo": 1882,
      "Ġsito": 1883,
      "Ġdagli": 1884,
      "av": 1885,
      "Ġami": 1886,
      "bietti": 1887,
      "onato": 1888,
      "Ġdetermina": 1889,
      "su": 1890,
      "Ġvuo": 1891,
      "entale": 1892,
      "Ġru": 1893,
      "ID": 1894,
      "Ġ28": 1895,
      "omia": 1896,
      "pro": 1897,
      "Ġfamiglia": 1898,
      "Ġfis": 1899,
      "sare": 1900,
      "Ġeffetti": 1901,
      "Ġrice": 1902,
      "Ġcapa": 1903,
      "Ġfran": 1904,
      "Ġsor": 1905,
      "viato": 1906,
      "Ġmodifica": 1907,
      "Ġgennaio": 1908,
      "dendo": 1909,
      "Ġinoltre": 1910,
      "Ġsettembre": 1911,
      "dice": 1912,
      "Ġinformazioni": 1913,
      "Ġpreve": 1914,
      "2004": 1915,
      "Ġsan": 1916,
      "zzati": 1917,
      "Ġmesi": 1918,
      "Ġgrandi": 1919,
      "Ġabbiamo": 1920,
      "Ġesclu": 1921,
      "ati": 1922,
      "Ġlascia": 1923,
      "erazione": 1924,
      "visione": 1925,
      "bbraio": 1926,
      "Ġdiffer": 1927,
      "toria": 1928,
      "Ġconclu": 1929,
      "Ġnostra": 1930,
      "alla": 1931,
      "Ġelet": 1932,
      "ĠHa": 1933,
      "Ġinse": 1934,
      "Ġparla": 1935,
      "Ġbra": 1936,
      "media": 1937,
      "Ġgoverno": 1938,
      "ĠrealtÃł": 1939,
      "ĠBo": 1940,
      "Ġcommer": 1941,
      "Italia": 1942,
      "Ġcu": 1943,
      "Ġgrado": 1944,
      "Ġimpe": 1945,
      "Ġsuper": 1946,
      "duzione": 1947,
      "Ġindividu": 1948,
      "isti": 1949,
      "Ġregionale": 1950,
      "Ġsettore": 1951,
      "gioni": 1952,
      "net": 1953,
      "ĠStati": 1954,
      "Ġscritto": 1955,
      "Ġatten": 1956,
      "04": 1957,
      "ccol": 1958,
      "eo": 1959,
      "cchio": 1960,
      "Ġappar": 1961,
      "Ġintegra": 1962,
      "Ġsuperi": 1963,
      "Ġcura": 1964,
      "Ġvengono": 1965,
      "visi": 1966,
      "Ġcorre": 1967,
      "Ġof": 1968,
      "Ġand": 1969,
      "ttamente": 1970,
      "Ġlegisla": 1971,
      "cenza": 1972,
      "tenza": 1973,
      "Ġconfer": 1974,
      "Ġalmeno": 1975,
      "Ġatto": 1976,
      "Ġsquad": 1977,
      "ventu": 1978,
      "ĠIN": 1979,
      "IO": 1980,
      "essione": 1981,
      "Ġcampo": 1982,
      "Ġriferimento": 1983,
      "versa": 1984,
      "Ġani": 1985,
      "ĠCh": 1986,
      "be": 1987,
      "Ġvisto": 1988,
      "Ġuffi": 1989,
      "Ġquattro": 1990,
      "ĠGiu": 1991,
      "centi": 1992,
      "Ġgia": 1993,
      "erito": 1994,
      "Ġsei": 1995,
      "Ġluogo": 1996,
      "Ġstrada": 1997,
      "Ġni": 1998,
      "ĠGu": 1999,
      "Ġvero": 2000,
      "mano": 2001,
      "Ġmilioni": 2002,
      "serva": 2003,
      "Ġ)": 2004,
      "ĠpossibilitÃł": 2005,
      "ĠMilano": 2006,
      "Ġrivol": 2007,
      "Ġpropri": 2008,
      "Ġdiff": 2009,
      "Ġsosten": 2010,
      "ger": 2011,
      "Ġdav": 2012,
      "Ġdeli": 2013,
      "clu": 2014,
      "Ġaper": 2015,
      "ĠFor": 2016,
      "ĠØ": 2017,
      "Ġtradi": 2018,
      "simo": 2019,
      "ata": 2020,
      "Ġdiverse": 2021,
      "ĠCol": 2022,
      "Ġeffettu": 2023,
      "Ġvari": 2024,
      "Ġsostitu": 2025,
      "ĠHo": 2026,
      "html": 2027,
      "mentare": 2028,
      "Ġcose": 2029,
      "trui": 2030,
      "Ġdato": 2031,
      "Ġconto": 2032,
      "Ġrile": 2033,
      "Ġ27": 2034,
      "stin": 2035,
      "Ġfuori": 2036,
      "Ġrapporto": 2037,
      "vata": 2038,
      "tture": 2039,
      "ĠTor": 2040,
      "Ġ26": 2041,
      "Ġrif": 2042,
      "Ġtesto": 2043,
      "07": 2044,
      "coltÃł": 2045,
      "unta": 2046,
      "15": 2047,
      "chio": 2048,
      "Ġide": 2049,
      "Ġmoda": 2050,
      "18": 2051,
      "ĠArt": 2052,
      "Ġsetti": 2053,
      "Ġpur": 2054,
      "Ġogg": 2055,
      "Ġvaluta": 2056,
      "cendo": 2057,
      "199": 2058,
      "Ġforse": 2059,
      "ĠSono": 2060,
      "fon": 2061,
      "Ġfebbraio": 2062,
      "Ġforte": 2063,
      "mar": 2064,
      "dati": 2065,
      "Ġaffi": 2066,
      "Ġsingo": 2067,
      "lli": 2068,
      "Ġmorte": 2069,
      "Ġpresenza": 2070,
      "Ġcio": 2071,
      "pubblica": 2072,
      "dustri": 2073,
      "dita": 2074,
      "Ġentro": 2075,
      "ĠTo": 2076,
      "rs": 2077,
      "des": 2078,
      "Ġgui": 2079,
      "Ġpaese": 2080,
      "Ġmin": 2081,
      "rati": 2082,
      "Ġgestione": 2083,
      "alo": 2084,
      "Ġallora": 2085,
      "Ġitaliana": 2086,
      "Ġmercato": 2087,
      "Ġdiscip": 2088,
      "vati": 2089,
      "ĠSer": 2090,
      "ĠCen": 2091,
      "Ġaprile": 2092,
      "Ġassocia": 2093,
      "Ġcambia": 2094,
      "ito": 2095,
      "Ġstruttura": 2096,
      "Ġsituazione": 2097,
      "Ġlegg": 2098,
      "viso": 2099,
      "Ġposi": 2100,
      "Ġmanif": 2101,
      "mai": 2102,
      "Ġmemb": 2103,
      "ziali": 2104,
      "Ġcia": 2105,
      "usto": 2106,
      "unto": 2107,
      "ĠDu": 2108,
      "Ġnovembre": 2109,
      "Ġprimi": 2110,
      "ossi": 2111,
      "Ġpote": 2112,
      "Ġaffer": 2113,
      "zienda": 2114,
      "Ġpreci": 2115,
      "Ġlungo": 2116,
      "Ġur": 2117,
      "mane": 2118,
      "Ġmeglio": 2119,
      "mmo": 2120,
      "Ġsecolo": 2121,
      "bu": 2122,
      "Ġpari": 2123,
      "Ġspie": 2124,
      "Ġfoto": 2125,
      "ĠVer": 2126,
      "Ġitaliano": 2127,
      "Ġfavore": 2128,
      "Ġsicurezza": 2129,
      "Ġfosse": 2130,
      "03": 2131,
      "Ġforni": 2132,
      "Ġlavori": 2133,
      "omini": 2134,
      "omb": 2135,
      "SI": 2136,
      "trale": 2137,
      "Ġdiscu": 2138,
      "Ġgrazie": 2139,
      "Ġproblemi": 2140,
      "Ġtrasp": 2141,
      "Ġdisponi": 2142,
      "Ġnoti": 2143,
      "ris": 2144,
      "Ġprom": 2145,
      "Ġparole": 2146,
      "Ġstate": 2147,
      "Â´": 2148,
      "Ġstagione": 2149,
      "quisi": 2150,
      "Ġperi": 2151,
      "Ġare": 2152,
      "ĠQuesto": 2153,
      "Ġcondizioni": 2154,
      "Ġottobre": 2155,
      "Ġcontrollo": 2156,
      "Âł": 2157,
      "Ġmessa": 2158,
      "Ġoff": 2159,
      "Ġdestina": 2160,
      "torno": 2161,
      "mata": 2162,
      "----------------": 2163,
      "gazione": 2164,
      "gon": 2165,
      "oo": 2166,
      "Ġdiritti": 2167,
      "ann": 2168,
      "truzione": 2169,
      "Ġfronte": 2170,
      ".,": 2171,
      "Ġ29": 2172,
      "Ġasse": 2173,
      "Ġavven": 2174,
      "Ġgiovani": 2175,
      "Ġtran": 2176,
      "car": 2177,
      "Ġdim": 2178,
      "bilmente": 2179,
      "Ġrelazione": 2180,
      "Ġlingua": 2181,
      "sato": 2182,
      "vazione": 2183,
      "ccon": 2184,
      "Ġvista": 2185,
      "ass": 2186,
      "tego": 2187,
      "Ġsinda": 2188,
      "ĠNi": 2189,
      "Ġsegna": 2190,
      "attivitÃł": 2191,
      "mani": 2192,
      "ĠCome": 2193,
      "RI": 2194,
      "ultimo": 2195,
      ");": 2196,
      "Ġdevono": 2197,
      "Ġtito": 2198,
      "Ġnu": 2199,
      "gica": 2200,
      "ardi": 2201,
      "Ġanti": 2202,
      "eni": 2203,
      "Ġimma": 2204,
      "Ġing": 2205,
      "ĠqualitÃł": 2206,
      "Ġperm": 2207,
      "ume": 2208,
      "Ġsiamo": 2209,
      "??": 2210,
      "Ġasso": 2211,
      "Ġcapo": 2212,
      "Ġ196": 2213,
      "Ġdiven": 2214,
      "lle": 2215,
      "Ġcompren": 2216,
      "unale": 2217,
      "ori": 2218,
      "Ġsoggetti": 2219,
      "Ġpercor": 2220,
      "ĠDopo": 2221,
      "unitÃł": 2222,
      "cola": 2223,
      "Ġproduzione": 2224,
      "02": 2225,
      "cle": 2226,
      "ai": 2227,
      "Ġex": 2228,
      "Ġ&": 2229,
      "Ġespre": 2230,
      "ĠDio": 2231,
      "inale": 2232,
      "Ġcorri": 2233,
      "Ġcli": 2234,
      "logia": 2235,
      "Ġmedia": 2236,
      "tenti": 2237,
      "Ġquest": 2238,
      "Ġsuccesso": 2239,
      "Ġdipen": 2240,
      "Ġnuove": 2241,
      "Ġfinale": 2242,
      "Ġade": 2243,
      "spi": 2244,
      "Ġmano": 2245,
      "ĠØ¨": 2246,
      "Ġdisc": 2247,
      "Ġspi": 2248,
      "Ġconsegu": 2249,
      "am": 2250,
      "ĠCor": 2251,
      "uomo": 2252,
      "50": 2253,
      "Ġbre": 2254,
      "Ġtema": 2255,
      "ke": 2256,
      "anna": 2257,
      "Le": 2258,
      "Ġcasi": 2259,
      "ide": 2260,
      "son": 2261,
      "ĠGiov": 2262,
      "Ġimportante": 2263,
      "vie": 2264,
      "Ar": 2265,
      "Ġdip": 2266,
      "gliere": 2267,
      "Ġ31": 2268,
      "Ġsociali": 2269,
      "Ġsemplice": 2270,
      "gati": 2271,
      "terna": 2272,
      "rito": 2273,
      "SA": 2274,
      "Ġrete": 2275,
      "Ġprocedu": 2276,
      "Ġspeciali": 2277,
      "Ġamm": 2278,
      "Ġreli": 2279,
      "tesi": 2280,
      "Ġagosto": 2281,
      "mentazione": 2282,
      "ĠCON": 2283,
      "erali": 2284,
      "Ġdare": 2285,
      "Ġfurono": 2286,
      "Ġatte": 2287,
      "len": 2288,
      "cata": 2289,
      "==": 2290,
      "Ġpunti": 2291,
      "ĠGoverno": 2292,
      "dici": 2293,
      "Ġnello": 2294,
      "Ġcoin": 2295,
      "16": 2296,
      "Ġorganizza": 2297,
      "omma": 2298,
      "tiene": 2299,
      "Ġmaggiore": 2300,
      "Ġforza": 2301,
      "Ġriten": 2302,
      "Ġthe": 2303,
      "Ġdomanda": 2304,
      "Ġeserci": 2305,
      "Ġraccon": 2306,
      "ĠRepubblica": 2307,
      "Ġconcer": 2308,
      "Ġnuovi": 2309,
      "ly": 2310,
      "Ġtesti": 2311,
      "Ġmezzo": 2312,
      "Ġprecedente": 2313,
      "mocra": 2314,
      "duta": 2315,
      "Ġinteressa": 2316,
      "Ġprocesso": 2317,
      "cura": 2318,
      "mia": 2319,
      "Ġsupp": 2320,
      "mare": 2321,
      "Ġas": 2322,
      "Ġriconosci": 2323,
      "Ġcerto": 2324,
      "rire": 2325,
      "auto": 2326,
      "Ġmaggior": 2327,
      "ĠGra": 2328,
      "Ġsaranno": 2329,
      "Ġseguenti": 2330,
      "Ġlei": 2331,
      "Ġproprie": 2332,
      "data": 2333,
      "Ġavuto": 2334,
      "php": 2335,
      "cino": 2336,
      "Ġtroppo": 2337,
      "Ġliber": 2338,
      "Ġpensi": 2339,
      "Ġtecno": 2340,
      "Ġcap": 2341,
      "zze": 2342,
      "ang": 2343,
      "OL": 2344,
      "ĠII": 2345,
      "rd": 2346,
      "telli": 2347,
      "Ġfaci": 2348,
      "ĠSta": 2349,
      "genza": 2350,
      "vesti": 2351,
      "14": 2352,
      "Ġriguarda": 2353,
      "Ġconsu": 2354,
      "Ġterra": 2355,
      "Ġ(\"": 2356,
      "cando": 2357,
      "06": 2358,
      "Ġ1999": 2359,
      "AL": 2360,
      "Ġquad": 2361,
      "Ġrappresen": 2362,
      "Ġscienti": 2363,
      "Ġpotrebbe": 2364,
      "Ġcomin": 2365,
      "17": 2366,
      "lie": 2367,
      "Ġuomini": 2368,
      "Ġresta": 2369,
      "Ġvalore": 2370,
      "Ġartico": 2371,
      "Ġrius": 2372,
      "Ġpare": 2373,
      "Ġrichiesta": 2374,
      "par": 2375,
      "Ġvera": 2376,
      "Ġesperi": 2377,
      "Ġpubblici": 2378,
      "ĠJo": 2379,
      "ĠAnche": 2380,
      "Ġ194": 2381,
      "Ġanima": 2382,
      "Ġpresta": 2383,
      "Ġcorpo": 2384,
      "ZIONE": 2385,
      "Ġprodotti": 2386,
      "Ġmostra": 2387,
      "osti": 2388,
      "ĠPu": 2389,
      "cche": 2390,
      "Ġsf": 2391,
      "tribui": 2392,
      "ft": 2393,
      "gano": 2394,
      "Ġul": 2395,
      "Ġinterventi": 2396,
      "ĠSal": 2397,
      "ĠperchÃ¨": 2398,
      "gini": 2399,
      "lib": 2400,
      "Ġdimostra": 2401,
      "Ġcittadini": 2402,
      "ĠAd": 2403,
      "diale": 2404,
      "Ġposizione": 2405,
      "Ġderi": 2406,
      "Ġce": 2407,
      "omeni": 2408,
      "atto": 2409,
      "Ġtorna": 2410,
      "Ġsubito": 2411,
      "Ġanzi": 2412,
      "Ġdisciplina": 2413,
      "sola": 2414,
      "13": 2415,
      "ĠTa": 2416,
      "Ġvolon": 2417,
      "Ġavrebbe": 2418,
      "Ġmino": 2419,
      "ry": 2420,
      "Ġdisposizioni": 2421,
      "Ġverifica": 2422,
      "anze": 2423,
      "Ġosserva": 2424,
      "tezza": 2425,
      "mica": 2426,
      "An": 2427,
      "Ġrisorse": 2428,
      "ambito": 2429,
      "vita": 2430,
      "Ġpresenti": 2431,
      "ET": 2432,
      "Ġopere": 2433,
      "meric": 2434,
      "gnato": 2435,
      "Ġdonne": 2436,
      "Ġitaliani": 2437,
      "mera": 2438,
      "Ġproposta": 2439,
      "Ġinternazionale": 2440,
      "Ġali": 2441,
      "Ġcandi": 2442,
      "duto": 2443,
      "pia": 2444,
      "Ġtempi": 2445,
      "ĠTe": 2446,
      "Ġimprese": 2447,
      "diamo": 2448,
      "fe": 2449,
      "Ġmisura": 2450,
      "Ġsani": 2451,
      "Ġregistra": 2452,
      "Ġriso": 2453,
      "ĠLA": 2454,
      "ttiva": 2455,
      "ty": 2456,
      "ora": 2457,
      "ĠcioÃ¨": 2458,
      "Ġtali": 2459,
      "tendo": 2460,
      "ĠMinistero": 2461,
      "gne": 2462,
      "Ġsegre": 2463,
      "CA": 2464,
      "voli": 2465,
      "mministrazione": 2466,
      "deo": 2467,
      "Ġgioco": 2468,
      "Ġcatego": 2469,
      "Ġinca": 2470,
      "Ġvalori": 2471,
      "2003": 2472,
      "Ġcompre": 2473,
      "cin": 2474,
      "Ġmusica": 2475,
      "Ġcomplessi": 2476,
      "ĠmodalitÃł": 2477,
      "gata": 2478,
      "more": 2479,
      "turo": 2480,
      "Ġusci": 2481,
      "Ġgiusti": 2482,
      "Ġfrequ": 2483,
      "Ġbambini": 2484,
      "damento": 2485,
      "Ġcomporta": 2486,
      "Ġbar": 2487,
      "Ġgaranti": 2488,
      "tela": 2489,
      "ĠProvin": 2490,
      "Al": 2491,
      "ĠRis": 2492,
      "ccasione": 2493,
      "Ġgenere": 2494,
      "Ġobbli": 2495,
      "Ġcostrui": 2496,
      "ĠnonchÃ©": 2497,
      "Ġset": 2498,
      "Ġnorme": 2499,
      "Ġstudi": 2500,
      "ttan": 2501,
      "toni": 2502,
      "gico": 2503,
      "Ġindica": 2504,
      "Ġcine": 2505,
      "Ġmini": 2506,
      "uri": 2507,
      "Ġpratica": 2508,
      "Ġsuperiore": 2509,
      "ĠnÃ©": 2510,
      "Ġpartire": 2511,
      "Ġlavoratori": 2512,
      "dito": 2513,
      "bum": 2514,
      "ĠSp": 2515,
      "Ġlibro": 2516,
      "Ġvedere": 2517,
      "Ġtenta": 2518,
      "ppia": 2519,
      "Ġori": 2520,
      "Ġinterpre": 2521,
      "Ġtal": 2522,
      "Ġdisa": 2523,
      "lar": 2524,
      "Ġnecessario": 2525,
      "Ġspecie": 2526,
      "Ġnecessi": 2527,
      "zzate": 2528,
      "ka": 2529,
      "veni": 2530,
      "rsquo": 2531,
      "mico": 2532,
      "ser": 2533,
      "Ġormai": 2534,
      "lin": 2535,
      "Ġscola": 2536,
      "Ġquestione": 2537,
      "ĠVal": 2538,
      "Ġpaesi": 2539,
      "uore": 2540,
      "Ġpron": 2541,
      "Ġpossa": 2542,
      "zion": 2543,
      "Ġfisi": 2544,
      "eci": 2545,
      "ĠCri": 2546,
      "Ġappli": 2547,
      "ttori": 2548,
      "ond": 2549,
      "Ġabbia": 2550,
      "Ġsquadra": 2551,
      "sca": 2552,
      "iscono": 2553,
      "ĠBu": 2554,
      "Ġciasc": 2555,
      "area": 2556,
      "âĢĿ.": 2557,
      "Ġpoter": 2558,
      "24": 2559,
      "Ġquanti": 2560,
      "Ġpolitiche": 2561,
      "mentale": 2562,
      "blio": 2563,
      "ĠBar": 2564,
      "Ġlinea": 2565,
      "ĠRu": 2566,
      "Ġmovi": 2567,
      "tivamente": 2568,
      "Ġdise": 2569,
      "Ġmolte": 2570,
      "Ġcinque": 2571,
      "Ġscelta": 2572,
      "Ġeventu": 2573,
      "Ġenti": 2574,
      "inali": 2575,
      "ĠRegione": 2576,
      "Ġraccol": 2577,
      "Ġfigu": 2578,
      "Ġformu": 2579,
      "Ġdiffici": 2580,
      "09": 2581,
      "mio": 2582,
      "Ġnomina": 2583,
      "Ġvelo": 2584,
      "Ġordina": 2585,
      "NA": 2586,
      "Ġfir": 2587,
      "Ġpotere": 2588,
      "gente": 2589,
      "Ġfal": 2590,
      "Ġrisultati": 2591,
      "ir": 2592,
      "Ġstre": 2593,
      "Ġnulla": 2594,
      "sh": 2595,
      "Ġtesta": 2596,
      "25": 2597,
      "ĠDis": 2598,
      "Ġprevisto": 2599,
      "Ġultimi": 2600,
      "ĠPri": 2601,
      "ster": 2602,
      "inizio": 2603,
      "lancio": 2604,
      "Ġidenti": 2605,
      "sero": 2606,
      "ĠGran": 2607,
      "ranza": 2608,
      "Ġcomunicazione": 2609,
      "ÃĪ": 2610,
      "tate": 2611,
      "Ġfilo": 2612,
      "Ġspetta": 2613,
      "Ġsera": 2614,
      "Ġotti": 2615,
      "gamento": 2616,
      "Ġobietti": 2617,
      "OS": 2618,
      "ĠNella": 2619,
      "Ġpadre": 2620,
      "Ġtuo": 2621,
      "Ġfatti": 2622,
      "Ġmala": 2623,
      "Ġcontinua": 2624,
      "Ġacca": 2625,
      "rano": 2626,
      "Ġcaratteris": 2627,
      "Ġcivile": 2628,
      "ĠcapacitÃł": 2629,
      "Ġapplica": 2630,
      "Ġassolu": 2631,
      "Ġcaratteri": 2632,
      "Ġfanno": 2633,
      "Ġzona": 2634,
      "MA": 2635,
      "Ġoccupa": 2636,
      "Ġprova": 2637,
      "Ġsud": 2638,
      "ramente": 2639,
      "Ġqualcosa": 2640,
      "Qu": 2641,
      "Ġvuole": 2642,
      "ficato": 2643,
      "Ġst": 2644,
      "Ġfiglio": 2645,
      "Ġintro": 2646,
      "eserci": 2647,
      "Ġmanifesta": 2648,
      "\")": 2649,
      "Ġstessi": 2650,
      "Ġcoinvol": 2651,
      "mati": 2652,
      "fficio": 2653,
      "ompa": 2654,
      "ĠComune": 2655,
      "Ġrima": 2656,
      "Ġcontratto": 2657,
      "ssimi": 2658,
      "ostante": 2659,
      "Ġlocale": 2660,
      "Ġprovincia": 2661,
      "Ġadotta": 2662,
      "tana": 2663,
      "dotto": 2664,
      "Ġprepa": 2665,
      "arte": 2666,
      "tuale": 2667,
      "Ġ1998": 2668,
      "Ġdunque": 2669,
      "Ġcres": 2670,
      "Ġluce": 2671,
      "Ġvalutazione": 2672,
      "23": 2673,
      "26": 2674,
      "Ġmeto": 2675,
      "Ġgiornali": 2676,
      "Ġfase": 2677,
      "eti": 2678,
      "onica": 2679,
      "ĠChe": 2680,
      "ts": 2681,
      "siasi": 2682,
      "Ġprogetti": 2683,
      "entra": 2684,
      "zialmente": 2685,
      "Ġpsi": 2686,
      "Ġauton": 2687,
      "Ġriusci": 2688,
      "Ġdirig": 2689,
      "anche": 2690,
      "Ġrifi": 2691,
      "vista": 2692,
      "ssociazione": 2693,
      "bri": 2694,
      "Ġregione": 2695,
      "!!!!": 2696,
      "cher": 2697,
      "',": 2698,
      "Ġmale": 2699,
      "Ġgioca": 2700,
      "attu": 2701,
      "Ġeuropea": 2702,
      "Ġsola": 2703,
      "ĠAle": 2704,
      "condo": 2705,
      "anco": 2706,
      "ĠGiovanni": 2707,
      "Ġcolo": 2708,
      "arono": 2709,
      "lata": 2710,
      "formazione": 2711,
      "venzione": 2712,
      "enso": 2713,
      "Ġmanten": 2714,
      "ĠGer": 2715,
      "Ġtermini": 2716,
      "Ġprodotto": 2717,
      "Ġaffron": 2718,
      "Ġpubblicato": 2719,
      "ultima": 2720,
      "Ġovvero": 2721,
      "Ġatta": 2722,
      "Ġguar": 2723,
      "Ġrispon": 2724,
      "Ġspazio": 2725,
      "Ġillu": 2726,
      "mere": 2727,
      "tel": 2728,
      "ĠAL": 2729,
      "ork": 2730,
      "Ġid": 2731,
      "Ġcollaborazione": 2732,
      "Ġconfronti": 2733,
      "stro": 2734,
      "deva": 2735,
      "inte": 2736,
      "Ġcerti": 2737,
      "dano": 2738,
      "Ġcompon": 2739,
      "Ġlan": 2740,
      "tente": 2741,
      "Ġcento": 2742,
      "ĠcomunitÃł": 2743,
      "op": 2744,
      "Ġopport": 2745,
      "datti": 2746,
      "Ġtrasferi": 2747,
      "Ġsoltanto": 2748,
      "Ġcollo": 2749,
      "ĠUniti": 2750,
      "****": 2751,
      "Ġpatri": 2752,
      "Ġqualsiasi": 2753,
      "Ġdetta": 2754,
      "ĠPER": 2755,
      "land": 2756,
      "Ġdimen": 2757,
      "Ġnote": 2758,
      "Ġproba": 2759,
      "Ġfondo": 2760,
      "Ġfunziona": 2761,
      "Ġ50": 2762,
      "Ġsub": 2763,
      "Ġero": 2764,
      "Ġmede": 2765,
      "EG": 2766,
      "Ġsimi": 2767,
      "Ġvarie": 2768,
      "Ġiscri": 2769,
      "rando": 2770,
      "tituzione": 2771,
      "non": 2772,
      "Ġseguente": 2773,
      "Ġrifle": 2774,
      "ritÃł": 2775,
      "Ġfunzioni": 2776,
      "Ġchie": 2777,
      "udi": 2778,
      "Ġcoper": 2779,
      "ĠGen": 2780,
      "sco": 2781,
      "ĠQuesta": 2782,
      "Ġrealizzazione": 2783,
      "Ġmese": 2784,
      "Ġapparten": 2785,
      "ffica": 2786,
      "ĠMinistro": 2787,
      "stiche": 2788,
      "tagon": 2789,
      "nale": 2790,
      "Ġtipi": 2791,
      "Ġpassato": 2792,
      "bbiamo": 2793,
      "ĠFranc": 2794,
      "Ġpartecipazione": 2795,
      "Ġdonna": 2796,
      "Ġfunzione": 2797,
      "Ġrego": 2798,
      "gistra": 2799,
      "tazioni": 2800,
      "Ġ/": 2801,
      "Ġterritori": 2802,
      "ĠMan": 2803,
      "gimento": 2804,
      "Ġconvin": 2805,
      "Ġdiffi": 2806,
      "Ġequi": 2807,
      "rere": 2808,
      "Ġconsul": 2809,
      "Ġterzo": 2810,
      "Â»,": 2811,
      "rno": 2812,
      "Ġfuturo": 2813,
      "ĠTer": 2814,
      "Ġavvi": 2815,
      "Ġacqu": 2816,
      "ĠMaria": 2817,
      "Ġucci": 2818,
      "âĦ": 2819,
      "rori": 2820,
      "Ġaree": 2821,
      "âĦ¢": 2822,
      "Ġpopolazione": 2823,
      "unica": 2824,
      "Ġstrani": 2825,
      "Ġfranc": 2826,
      "Ġpochi": 2827,
      "ĠVene": 2828,
      "tuto": 2829,
      "eta": 2830,
      "osso": 2831,
      "rente": 2832,
      "lese": 2833,
      "Ġ1997": 2834,
      "Euro": 2835,
      "Ġim": 2836,
      "27": 2837,
      "Ġsinistra": 2838,
      "archi": 2839,
      "Ġprincipale": 2840,
      "ĠIo": 2841,
      "Ġmembri": 2842,
      "33": 2843,
      "Ġcorrispon": 2844,
      "Ġnostri": 2845,
      "bra": 2846,
      "Ġconserva": 2847,
      "Ġconsenti": 2848,
      "âĤ¬âĦ¢": 2849,
      "âĢĿ,": 2850,
      "Ġfaccia": 2851,
      "ĠThe": 2852,
      "AS": 2853,
      "ĠSte": 2854,
      "Ġstrumenti": 2855,
      "Ġ195": 2856,
      "28": 2857,
      "Ġelementi": 2858,
      "Ġmondiale": 2859,
      "Ġtotale": 2860,
      "Ġpla": 2861,
      "Ġgruppi": 2862,
      "Ġsupera": 2863,
      "Ġtuttavia": 2864,
      "Ġandare": 2865,
      "Ġragione": 2866,
      "Ġblo": 2867,
      "organi": 2868,
      "erato": 2869,
      "erita": 2870,
      "ggiorna": 2871,
      "ĠQuando": 2872,
      "ĠlibertÃł": 2873,
      "ĠDire": 2874,
      "Ġdemocra": 2875,
      "ĠSc": 2876,
      "Ġmare": 2877,
      "anca": 2878,
      "Ġdisposizione": 2879,
      "Ġtrovare": 2880,
      "ate": 2881,
      "CI": 2882,
      "alisi": 2883,
      "Ġpace": 2884,
      "Ġriserva": 2885,
      "ditÃł": 2886,
      "Ġposti": 2887,
      "detto": 2888,
      "ĠnecessitÃł": 2889,
      "Ġcoordina": 2890,
      "mentali": 2891,
      "Ġtutela": 2892,
      "Ġgo": 2893,
      "Ġdol": 2894,
      "Ġries": 2895,
      "29": 2896,
      "Ġcro": 2897,
      "Ġriv": 2898,
      "Ġrila": 2899,
      "Ġoppure": 2900,
      "ĠMessa": 2901,
      "uale": 2902,
      "Ġet": 2903,
      "Ġforme": 2904,
      "monio": 2905,
      "ĠOr": 2906,
      "Ġviol": 2907,
      "Ġemer": 2908,
      "Ġesclusi": 2909,
      "tribuzione": 2910,
      "ld": 2911,
      "Ġavevano": 2912,
      "Ġpolitico": 2913,
      "essore": 2914,
      "xx": 2915,
      "Ġimportanti": 2916,
      "dimenti": 2917,
      "Ġlon": 2918,
      "ĠGia": 2919,
      "ita": 2920,
      "Con": 2921,
      "Ġospi": 2922,
      "Ġsche": 2923,
      "ttivo": 2924,
      "Ġinci": 2925,
      "Ġleg": 2926,
      "IL": 2927,
      "CH": 2928,
      "Ġdistin": 2929,
      "Ġvoce": 2930,
      "Ġgiuri": 2931,
      "mite": 2932,
      "Ġvaria": 2933,
      "gore": 2934,
      "Ġgara": 2935,
      "Ġarticolo": 2936,
      "Ġprofi": 2937,
      "Ġrisposta": 2938,
      "ent": 2939,
      "assi": 2940,
      "itato": 2941,
      "alitÃł": 2942,
      "UN": 2943,
      "Ġscuole": 2944,
      "Ġwww": 2945,
      "Ġcomincia": 2946,
      "tanze": 2947,
      "Ġprovvedimento": 2948,
      "Ġpersonali": 2949,
      "mitÃł": 2950,
      "Ùį,": 2951,
      "ĠVo": 2952,
      "Ġdovrebbe": 2953,
      "Ġmodello": 2954,
      "mentari": 2955,
      "grafia": 2956,
      "Ġinvesti": 2957,
      "ĠPaolo": 2958,
      "ĠIL": 2959,
      "mble": 2960,
      "CE": 2961,
      "ismo": 2962,
      "acqua": 2963,
      "Ġfrancese": 2964,
      "Ġdele": 2965,
      "Ġunico": 2966,
      "Se": 2967,
      "Ġmeta": 2968,
      "iss": 2969,
      "Ġoggetto": 2970,
      "Ġsov": 2971,
      "Ġnazionali": 2972,
      "Ġessa": 2973,
      "Ġbisogno": 2974,
      "vate": 2975,
      "Ġindustri": 2976,
      "Ġtecnologi": 2977,
      "Ġ+": 2978,
      "Ġnessuno": 2979,
      "Ġstampa": 2980,
      "Ġmas": 2981,
      "Ġabitanti": 2982,
      "ĠCer": 2983,
      "Ġrischio": 2984,
      "Ġversione": 2985,
      "onte": 2986,
      "ardo": 2987,
      "Ġappena": 2988,
      "Ġchiesa": 2989,
      "Ġis": 2990,
      "ĠChiesa": 2991,
      "Ġlegislativo": 2992,
      "Ġmoder": 2993,
      "ĠresponsabilitÃł": 2994,
      "DI": 2995,
      "08": 2996,
      "Ġparlare": 2997,
      "Ġgover": 2998,
      "Ġbuona": 2999,
      "ja": 3000,
      "Ġconoscenza": 3001,
      "Ġguida": 3002,
      "Ġrapporti": 3003,
      "tamento": 3004,
      "Ġdescri": 3005,
      "Ġcarattere": 3006,
      "centra": 3007,
      "ko": 3008,
      "Ġdirettamente": 3009,
      "Ġfigli": 3010,
      "99": 3011,
      "ĠTri": 3012,
      "camente": 3013,
      "ĠJa": 3014,
      "Ġprotagon": 3015,
      "dine": 3016,
      "Unione": 3017,
      "________________": 3018,
      "Ġprevede": 3019,
      "Ġprinci": 3020,
      "ordine": 3021,
      "ania": 3022,
      "Ġdia": 3023,
      "UniversitÃł": 3024,
      "Ġstrutture": 3025,
      "ande": 3026,
      "mici": 3027,
      "Ġ100": 3028,
      "Ġtar": 3029,
      "Ġfemm": 3030,
      "Ġcentrale": 3031,
      "ant": 3032,
      "Ġmediante": 3033,
      "Ġamici": 3034,
      "Ġresid": 3035,
      "berto": 3036,
      "ner": 3037,
      "ĠmetÃł": 3038,
      "rebbero": 3039,
      "bora": 3040,
      "lici": 3041,
      "Ġarchi": 3042,
      "ttoria": 3043,
      "Ġscopo": 3044,
      "ment": 3045,
      "Ġinferi": 3046,
      "45": 3047,
      "entemente": 3048,
      "gate": 3049,
      "Ġgiovane": 3050,
      "tile": 3051,
      "mbo": 3052,
      "Ġinvi": 3053,
      "Ġscena": 3054,
      "ficio": 3055,
      "Ġparere": 3056,
      "sima": 3057,
      "Ġespri": 3058,
      "Ġbri": 3059,
      "Ġrisultato": 3060,
      "Ġprincipali": 3061,
      "AM": 3062,
      "ettare": 3063,
      "stici": 3064,
      "Ġvoi": 3065,
      "Ġtea": 3066,
      "!!!": 3067,
      "les": 3068,
      "Ġrecu": 3069,
      "Ġnota": 3070,
      "durre": 3071,
      "Ġbreve": 3072,
      "ĠcosÃ¬": 3073,
      "reno": 3074,
      "Ġdelib": 3075,
      "Ġriforma": 3076,
      "Ġrelative": 3077,
      "Ġrelativi": 3078,
      "Ġstrate": 3079,
      "entali": 3080,
      "lazzo": 3081,
      "bliote": 3082,
      "Ġbilancio": 3083,
      "Ġ<": 3084,
      "rlo": 3085,
      "'.": 3086,
      "Ġcel": 3087,
      "Ġdedica": 3088,
      "Ġeletto": 3089,
      "VI": 3090,
      "batti": 3091,
      "Ġsfi": 3092,
      "Ġpromo": 3093,
      "Ġricev": 3094,
      "Ġvideo": 3095,
      "Ġ*": 3096,
      "Ġvali": 3097,
      "Ġcarri": 3098,
      "ware": 3099,
      "Do": 3100,
      "Ġulterio": 3101,
      "ranea": 3102,
      "ĠAll": 3103,
      "Ġoffer": 3104,
      "ĠCre": 3105,
      "Ġhai": 3106,
      "Ġeconomico": 3107,
      "Ġpass": 3108,
      "Ġpericolo": 3109,
      "genze": 3110,
      "35": 3111,
      "Ġimpi": 3112,
      "conomia": 3113,
      "Ġpure": 3114,
      "Ġforze": 3115,
      "Ġmemo": 3116,
      "ĠCorte": 3117,
      "ĠpuÃ²": 3118,
      "Ġgeni": 3119,
      "Ġfen": 3120,
      "ins": 3121,
      "Ġocchi": 3122,
      "Ġsapere": 3123,
      "ĠNew": 3124,
      "azioni": 3125,
      "bato": 3126,
      "Ġcostruzione": 3127,
      "mba": 3128,
      "Ġmassimo": 3129,
      "ĠCarlo": 3130,
      "utare": 3131,
      "poca": 3132,
      "ĠDE": 3133,
      "Ġsottoline": 3134,
      "ttosto": 3135,
      "Ġmacch": 3136,
      "ambiente": 3137,
      "samente": 3138,
      "matica": 3139,
      "Ġvole": 3140,
      "Ġministro": 3141,
      "cento": 3142,
      "Ġordine": 3143,
      "Ġmetri": 3144,
      "ĠFrancia": 3145,
      "Ġesist": 3146,
      "ddis": 3147,
      "noltre": 3148,
      "ĠVia": 3149,
      "Ġriman": 3150,
      "eso": 3151,
      "âĢ¦âĢ¦": 3152,
      "Ġleggi": 3153,
      "Ġdifficile": 3154,
      "renze": 3155,
      "Ġfru": 3156,
      "Ġarticoli": 3157,
      "Ġcuore": 3158,
      "Ġriuni": 3159,
      "Ġgente": 3160,
      "Ġprofessionale": 3161,
      "Ġbuon": 3162,
      "nio": 3163,
      "Ġconosci": 3164,
      "22": 3165,
      "Ġtrib": 3166,
      "Ġtanti": 3167,
      "tidi": 3168,
      "Ġclasse": 3169,
      "merica": 3170,
      "ĠDal": 3171,
      "onati": 3172,
      "Ġurb": 3173,
      "erio": 3174,
      "tretto": 3175,
      "ziende": 3176,
      "Ġresto": 3177,
      "parti": 3178,
      "ppure": 3179,
      "mpia": 3180,
      "Ġuomo": 3181,
      "missioni": 3182,
      "ĠCia": 3183,
      "Ma": 3184,
      "Ġcond": 3185,
      "ersi": 3186,
      "Ġmadre": 3187,
      "utili": 3188,
      "Ġessi": 3189,
      "Ġcampa": 3190,
      "Ġpiccolo": 3191,
      "Ġdisco": 3192,
      "genti": 3193,
      "ya": 3194,
      "Ġrica": 3195,
      "Ġiniziative": 3196,
      "occupa": 3197,
      "ĠNazionale": 3198,
      "tur": 3199,
      "onna": 3200,
      "lamento": 3201,
      "trici": 3202,
      "ĠSpa": 3203,
      "Ġdesid": 3204,
      "Ġpoten": 3205,
      "Ġcontempo": 3206,
      "tenzione": 3207,
      "Ġresi": 3208,
      "Ġaccor": 3209,
      "Ġ]": 3210,
      "Ġparola": 3211,
      "Europa": 3212,
      "bbia": 3213,
      "tran": 3214,
      "inf": 3215,
      "Ġtecnico": 3216,
      "Ġameric": 3217,
      "Ġir": 3218,
      "Ġtramite": 3219,
      "ĠProvincia": 3220,
      "anzi": 3221,
      "Ġlibera": 3222,
      "raggio": 3223,
      "Ġglo": 3224,
      "Ġritro": 3225,
      "Ġturi": 3226,
      "Ġspor": 3227,
      "39": 3228,
      "Ġstudenti": 3229,
      "lazioni": 3230,
      "Ġnotte": 3231,
      "Ġinteresse": 3232,
      "ĠdifficoltÃł": 3233,
      "Ġindiri": 3234,
      "ĠBe": 3235,
      "ergia": 3236,
      "Ġch": 3237,
      "SO": 3238,
      "colare": 3239,
      "terÃł": 3240,
      "lini": 3241,
      "Ġappare": 3242,
      "Ġdidatti": 3243,
      "Ġmerito": 3244,
      "rate": 3245,
      "ex": 3246,
      "ĠServi": 3247,
      "idea": 3248,
      "Ġipo": 3249,
      "ler": 3250,
      "Ġcodice": 3251,
      "Ġinfine": 3252,
      "Ġdavanti": 3253,
      "Ġusa": 3254,
      "ĠItali": 3255,
      "tello": 3256,
      "Ġagg": 3257,
      "mail": 3258,
      "Ġpercorso": 3259,
      "ĠAu": 3260,
      "lati": 3261,
      "Ġop": 3262,
      "Ġtemp": 3263,
      "Ġspese": 3264,
      "Ġniente": 3265,
      "Ġimmedia": 3266,
      "esp": 3267,
      "Ġdavvero": 3268,
      "Ġpuo": 3269,
      "Ġgro": 3270,
      "posito": 3271,
      "ĠAlla": 3272,
      "hn": 3273,
      "Ġculturale": 3274,
      "RES": 3275,
      "AT": 3276,
      "Ġsuccessivo": 3277,
      "zzando": 3278,
      "Ġaccompa": 3279,
      "esame": 3280,
      "mazione": 3281,
      "Ġregolamento": 3282,
      "rali": 3283,
      "mbio": 3284,
      "CO": 3285,
      "Ġriti": 3286,
      "vali": 3287,
      "Ġimpie": 3288,
      "ĠFer": 3289,
      "Ġsistemi": 3290,
      "Ġcredo": 3291,
      "spetti": 3292,
      "ĠTorino": 3293,
      "Ġpiuttosto": 3294,
      "Ġepi": 3295,
      "2002": 3296,
      "Ġmaggioranza": 3297,
      "gie": 3298,
      "Ġcaratteristiche": 3299,
      "Ġcorsi": 3300,
      "ĠVen": 3301,
      "ĠCOM": 3302,
      "gari": 3303,
      "Ġconn": 3304,
      "Ġdifesa": 3305,
      "Ġmor": 3306,
      "dri": 3307,
      "Ġreligi": 3308,
      "grazione": 3309,
      "Ġdet": 3310,
      "Ġx": 3311,
      "Ġprime": 3312,
      "allo": 3313,
      "Ġcanz": 3314,
      "Ġsperi": 3315,
      "ppone": 3316,
      "onia": 3317,
      "Ġdiscussione": 3318,
      "Ġrisulta": 3319,
      "Ġstorico": 3320,
      "Ġtitoli": 3321,
      "usione": 3322,
      "Ġprogrammi": 3323,
      "Ġragazzi": 3324,
      "cesi": 3325,
      "Ġdistru": 3326,
      "cante": 3327,
      "news": 3328,
      "Ġregioni": 3329,
      "Ġprevisti": 3330,
      "36": 3331,
      "Ġbatta": 3332,
      "ĠMich": 3333,
      "Ġassicu": 3334,
      "Ġcriteri": 3335,
      "omenti": 3336,
      "Ġtecnica": 3337,
      "Ġeconomica": 3338,
      "Ġpartecip": 3339,
      "ĠInoltre": 3340,
      "Ġbe": 3341,
      "Ġdiretto": 3342,
      "mania": 3343,
      "Ġdallo": 3344,
      "ENTE": 3345,
      "into": 3346,
      "Ġfacendo": 3347,
      "detta": 3348,
      "Ġmalatti": 3349,
      "Ġqualcuno": 3350,
      "Ġcristi": 3351,
      "arci": 3352,
      "ĠCentro": 3353,
      "Ġinteress": 3354,
      "Ġcic": 3355,
      "Ġinseri": 3356,
      "ĠTh": 3357,
      "ĠsÃ©": 3358,
      "Ġinno": 3359,
      "ĠFrancesco": 3360,
      "ensi": 3361,
      "contro": 3362,
      "Ġocc": 3363,
      "Ġegli": 3364,
      "venire": 3365,
      "Ġfiloso": 3366,
      "Ġoccasione": 3367,
      "segui": 3368,
      "Ġcolpi": 3369,
      "Ġproveni": 3370,
      "ĠPoi": 3371,
      "21": 3372,
      "Ġfed": 3373,
      "34": 3374,
      "ĠGior": 3375,
      "Ġcele": 3376,
      "Ġsalute": 3377,
      "mes": 3378,
      "Ġrapi": 3379,
      "Ġmilitare": 3380,
      "Ġesso": 3381,
      "ONI": 3382,
      "Ġperman": 3383,
      "Ġbeni": 3384,
      "Ġmatt": 3385,
      "38": 3386,
      "Ġdedi": 3387,
      "Ġsper": 3388,
      "Ġaspetti": 3389,
      "vera": 3390,
      "ĠEuropa": 3391,
      "Ġcategoria": 3392,
      "sitÃł": 3393,
      "Ġdovuto": 3394,
      "ZA": 3395,
      "Ġcarico": 3396,
      "Per": 3397,
      "pero": 3398,
      "Ġvede": 3399,
      "dale": 3400,
      "Ġab": 3401,
      "tito": 3402,
      "uali": 3403,
      "umi": 3404,
      "ĠdovrÃł": 3405,
      "Ġcosto": 3406,
      "Ġinglese": 3407,
      "Ġtrattamento": 3408,
      "Ġmos": 3409,
      "Ġprincipio": 3410,
      "NO": 3411,
      "Ġlaure": 3412,
      "ee": 3413,
      "ressi": 3414,
      "Ġperf": 3415,
      "arto": 3416,
      "Ġsom": 3417,
      "Ġalto": 3418,
      "Ġmettere": 3419,
      "Ġeuropeo": 3420,
      "Ġscu": 3421,
      "razioni": 3422,
      "Ġcerca": 3423,
      "monia": 3424,
      "Ġsugli": 3425,
      "Ġcampionato": 3426,
      "Ġ40": 3427,
      "Ġsconfi": 3428,
      "Ġcoloro": 3429,
      "Ġsettimana": 3430,
      "Ġgiun": 3431,
      "operazione": 3432,
      "uola": 3433,
      "Ġpensa": 3434,
      "tonio": 3435,
      "oren": 3436,
      "ĠStu": 3437,
      "Ġgiudizio": 3438,
      "Ġnord": 3439,
      "Ġrispetti": 3440,
      "Ġvoglia": 3441,
      "Ġconcorso": 3442,
      "Ġmal": 3443,
      "37": 3444,
      "ĠInviato": 3445,
      "Ġvio": 3446,
      "ĠPoli": 3447,
      "Ġpotr": 3448,
      "terno": 3449,
      "Ġroman": 3450,
      "Ġinclu": 3451,
      "Ġdurata": 3452,
      "resso": 3453,
      "lando": 3454,
      "Ġaziende": 3455,
      "Ġvoto": 3456,
      "Ġabband": 3457,
      "dersi": 3458,
      "Ġinizi": 3459,
      "mos": 3460,
      "Ġdocumenti": 3461,
      "ĠPe": 3462,
      "ms": 3463,
      "Ġdirezione": 3464,
      "ĠPRO": 3465,
      "ĠNapoli": 3466,
      "Ġmovimento": 3467,
      "Ġela": 3468,
      "ĠCla": 3469,
      "Ġazioni": 3470,
      "Ġestre": 3471,
      "ondo": 3472,
      "Ġmecc": 3473,
      "ĠSecondo": 3474,
      "Ġmaniera": 3475,
      "Ġeli": 3476,
      "inda": 3477,
      "ĠLui": 3478,
      "Ġedu": 3479,
      "Ġscoper": 3480,
      "organizzazione": 3481,
      "Ġsvilupp": 3482,
      "wa": 3483,
      "VA": 3484,
      "Ġsepa": 3485,
      "Ġ?": 3486,
      "Ġarg": 3487,
      "Ġumani": 3488,
      "Ġteo": 3489,
      "Ġincontra": 3490,
      "ĠAng": 3491,
      "Ġscorso": 3492,
      "Ġquotidi": 3493,
      "80": 3494,
      "Ġcosti": 3495,
      "Ġvigore": 3496,
      "Ġpol": 3497,
      "Ġprendere": 3498,
      "dire": 3499,
      "Ġschi": 3500,
      "Ġmetodo": 3501,
      "Ġdirettore": 3502,
      "Ġpreviste": 3503,
      "Ġsoddis": 3504,
      "cal": 3505,
      "Ġcapire": 3506,
      "Ġpiani": 3507,
      "cuzione": 3508,
      "Si": 3509,
      "cole": 3510,
      "Ġeffica": 3511,
      "ĠPaese": 3512,
      "Ġtelef": 3513,
      "Ġuso": 3514,
      "Ġquadro": 3515,
      "enato": 3516,
      "Ġdanno": 3517,
      "ĠSar": 3518,
      "wn": 3519,
      "ĠGre": 3520,
      "................": 3521,
      "Ġlotta": 3522,
      "Ġchiede": 3523,
      "Ġsele": 3524,
      "Ġdocumento": 3525,
      "Ġmigliore": 3526,
      "messo": 3527,
      "stituto": 3528,
      "ader": 3529,
      "ĠFin": 3530,
      "ccato": 3531,
      "Ġavanti": 3532,
      "ĠInternet": 3533,
      ".\"": 3534,
      "Ġconqu": 3535,
      "Ġvorre": 3536,
      "ĠBra": 3537,
      "Ġmisure": 3538,
      "Ġottenere": 3539,
      "Ġaggiorna": 3540,
      "Ġvicino": 3541,
      "ĠFo": 3542,
      "tono": 3543,
      "Ġquei": 3544,
      "omet": 3545,
      "alto": 3546,
      "ologna": 3547,
      "Ġsoste": 3548,
      "Ġrelativa": 3549,
      "ffa": 3550,
      "ĠEurope": 3551,
      "ĠFirenze": 3552,
      "ĠApp": 3553,
      "asse": 3554,
      "Ġconce": 3555,
      "Ġprovo": 3556,
      "Ġascol": 3557,
      "Ġfinali": 3558,
      "Ġobiettivi": 3559,
      "Ġcarriera": 3560,
      "Ġdra": 3561,
      "Ġradio": 3562,
      "ĠunitÃł": 3563,
      "Ġimm": 3564,
      "ĠComuni": 3565,
      "ĠOra": 3566,
      "ĠRisp": 3567,
      "48": 3568,
      "org": 3569,
      "cana": 3570,
      "Ġripro": 3571,
      "Ġufficiale": 3572,
      "ttive": 3573,
      "mate": 3574,
      "Ġstrumento": 3575,
      "Ġmateriale": 3576,
      "Ġesiste": 3577,
      "Ġesigenze": 3578,
      "ssioni": 3579,
      "ensa": 3580,
      "Ġviaggio": 3581,
      "dy": 3582,
      "Ġrichia": 3583,
      "Un": 3584,
      "ag": 3585,
      "ĠTre": 3586,
      "ers": 3587,
      "date": 3588,
      "tera": 3589,
      "canza": 3590,
      "Ġdieci": 3591,
      "Ġelettr": 3592,
      "Ġtua": 3593,
      "Ġconver": 3594,
      "Ġstile": 3595,
      "Ġconsiglio": 3596,
      "ccid": 3597,
      "Ġpensare": 3598,
      "Ġanimali": 3599,
      "ĠpotrÃł": 3600,
      "40": 3601,
      "ĠEd": 3602,
      "Ġvanno": 3603,
      "Ġproposte": 3604,
      "ĠFu": 3605,
      "Ġfatta": 3606,
      "Ġecce": 3607,
      "Ġpiazza": 3608,
      "Ġassa": 3609,
      "Ġby": 3610,
      "Ġcompetenza": 3611,
      "mettere": 3612,
      "49": 3613,
      "Ġinteressi": 3614,
      "Ġdecisione": 3615,
      "ttere": 3616,
      "Ġconfor": 3617,
      "Ġgenerali": 3618,
      "gnore": 3619,
      "Ġmaggiori": 3620,
      "up": 3621,
      "Ġ1996": 3622,
      "useppe": 3623,
      "Ġcrescita": 3624,
      "rov": 3625,
      "Ġrinno": 3626,
      "ĠproprietÃł": 3627,
      "ĠVa": 3628,
      "late": 3629,
      "illa": 3630,
      "Ġrecente": 3631,
      "Ġconfli": 3632,
      "Ġbasta": 3633,
      "vale": 3634,
      "ruppo": 3635,
      "Ġevitare": 3636,
      "dizione": 3637,
      "enda": 3638,
      "impre": 3639,
      "Ġistituzioni": 3640,
      "Ġassociazioni": 3641,
      "oss": 3642,
      "Ġsto": 3643,
      "ĠAN": 3644,
      "lub": 3645,
      "Ġregionali": 3646,
      "Ġcrisi": 3647,
      "Ġnonostante": 3648,
      "Ġriguardo": 3649,
      "Ġsugg": 3650,
      "ĠRom": 3651,
      "Ġsezione": 3652,
      "ct": 3653,
      "Non": 3654,
      "Ġrisol": 3655,
      "Ġveni": 3656,
      "TU": 3657,
      "Ġcreare": 3658,
      "yo": 3659,
      "tarie": 3660,
      "posizione": 3661,
      "Ġpiena": 3662,
      "lino": 3663,
      "Ġlar": 3664,
      "dini": 3665,
      "Ġintervento": 3666,
      "Ġlire": 3667,
      "Ġ=": 3668,
      "nero": 3669,
      "Ġieri": 3670,
      "Ġscar": 3671,
      "'s": 3672,
      "Ġnumerosi": 3673,
      "Ġferro": 3674,
      "quisiti": 3675,
      "Ġminuti": 3676,
      "Ġcontributo": 3677,
      "Ġnavi": 3678,
      "Ġsostegno": 3679,
      "Ġdestra": 3680,
      "Ġtecniche": 3681,
      "ĠCamera": 3682,
      "Ġcarta": 3683,
      "rone": 3684,
      "onico": 3685,
      "ĠNuo": 3686,
      "Ġlimiti": 3687,
      "dazione": 3688,
      "Ġrelativo": 3689,
      "Ġsoggetto": 3690,
      "Ġpartito": 3691,
      "Ġcaccia": 3692,
      "ĠParlamento": 3693,
      "accordo": 3694,
      "Ġvos": 3695,
      "ĠJu": 3696,
      "omenica": 3697,
      "Ġnormativa": 3698,
      "ĠMarco": 3699,
      "Ġresponsabile": 3700,
      "Ġrilev": 3701,
      "Ġpresentazione": 3702,
      "Ġfamiglie": 3703,
      "Ġesegui": 3704,
      "Ġpredi": 3705,
      "isola": 3706,
      "ficare": 3707,
      "ĠCan": 3708,
      "nitÃł": 3709,
      "trali": 3710,
      "toritÃł": 3711,
      "Ġritorno": 3712,
      "Ġcondizione": 3713,
      "inse": 3714,
      "Ġsoluzione": 3715,
      "Ġmassima": 3716,
      "azienda": 3717,
      "Ġpreso": 3718,
      "Ġinviato": 3719,
      "orsa": 3720,
      "gnare": 3721,
      "2000": 3722,
      "ettato": 3723,
      "rigi": 3724,
      "Ġgre": 3725,
      "Ġ;": 3726,
      "Ġom": 3727,
      "scritto": 3728,
      "Ġfanta": 3729,
      "ĠperÃ²": 3730,
      "Ġstraordina": 3731,
      "Ġcapitale": 3732,
      "Ġvicen": 3733,
      "Ġsce": 3734,
      "Ġadegua": 3735,
      "Ġcontenuti": 3736,
      "ĠBologna": 3737,
      "rendi": 3738,
      "Ġmotivi": 3739,
      "Ġessendo": 3740,
      "2001": 3741,
      "tuni": 3742,
      "Ġpiccoli": 3743,
      "Ġarre": 3744,
      "ĠGiuseppe": 3745,
      "Ġgiustizia": 3746,
      "ĠComitato": 3747,
      "Ġmezzi": 3748,
      "pli": 3749,
      "ĠAi": 3750,
      "Ġinferiore": 3751,
      "veri": 3752,
      "diri": 3753,
      "ĠGo": 3754,
      "Ġprincipi": 3755,
      "Ġpolizia": 3756,
      "Ġsottop": 3757,
      "Ġcircos": 3758,
      "pol": 3759,
      "ĠÂ»": 3760,
      "Ġmoglie": 3761,
      "ost": 3762,
      "Ġbru": 3763,
      "Ġfigura": 3764,
      "46": 3765,
      "Ġpertanto": 3766,
      "issi": 3767,
      "Ġstanno": 3768,
      "uzioni": 3769,
      "esercizio": 3770,
      "Ġgiornata": 3771,
      "Ġlunga": 3772,
      "Ġpresto": 3773,
      "ĠAndre": 3774,
      "aa": 3775,
      "Ġprecedenti": 3776,
      "gnati": 3777,
      "Ġprotezione": 3778,
      "ĠveritÃł": 3779,
      "ĠCast": 3780,
      "Ġcompeti": 3781,
      "Ġspesa": 3782,
      "Ġalbum": 3783,
      "liare": 3784,
      "cine": 3785,
      "grafica": 3786,
      "enziale": 3787,
      "Ġspeciale": 3788,
      "ĠMonte": 3789,
      "DA": 3790,
      "Ġprofessionali": 3791,
      "tria": 3792,
      "amore": 3793,
      "Ġdubbi": 3794,
      "Ca": 3795,
      "Ġraff": 3796,
      "arlo": 3797,
      "Ġpagina": 3798,
      "Ġoggetti": 3799,
      "Ġstesse": 3800,
      "ĠSci": 3801,
      "estro": 3802,
      "98": 3803,
      "Ġnecessaria": 3804,
      "Ġrico": 3805,
      "Ġletto": 3806,
      "Ġgiro": 3807,
      "ĠCostituzione": 3808,
      "ĠCH": 3809,
      "47": 3810,
      "Ġportato": 3811,
      "impi": 3812,
      "Ġclassifica": 3813,
      "Ġvir": 3814,
      "vid": 3815,
      "LO": 3816,
      "Ġistru": 3817,
      "Ġinternazionali": 3818,
      "mbe": 3819,
      "Ġcomponenti": 3820,
      "volo": 3821,
      "uter": 3822,
      "Ġaccesso": 3823,
      "TER": 3824,
      "ĠIII": 3825,
      "56": 3826,
      "Ġapposi": 3827,
      "Ġpopolo": 3828,
      "cla": 3829,
      "Ġsba": 3830,
      "Ġtru": 3831,
      "Ġdietro": 3832,
      "Ġabbi": 3833,
      "Ġmulti": 3834,
      "Ġriporta": 3835,
      "Ġpiccola": 3836,
      "Ġprocedura": 3837,
      "Ġcrea": 3838,
      "Ġimmagini": 3839,
      "Ġcomunale": 3840,
      "duce": 3841,
      "):": 3842,
      "Ġmeri": 3843,
      "Ġdebb": 3844,
      "sconi": 3845,
      "ĠMer": 3846,
      "Ġparticolar": 3847,
      "Ġincontro": 3848,
      "Ġuniversi": 3849,
      "esperi": 3850,
      "Ġripre": 3851,
      "Ġpazi": 3852,
      "Ġdomande": 3853,
      "ĠSh": 3854,
      "Ġpresentato": 3855,
      "ĠMart": 3856,
      "ggetto": 3857,
      "Ġculturali": 3858,
      "Ġart": 3859,
      "Ġvanta": 3860,
      "Ġj": 3861,
      "Ġcontrario": 3862,
      "Ġinvia": 3863,
      "Ġfile": 3864,
      "Ġparticolari": 3865,
      "imma": 3866,
      "ĠCal": 3867,
      "Ġseduta": 3868,
      "Ġsolle": 3869,
      "Ġmiliardi": 3870,
      "Ġintorno": 3871,
      "ĠpoichÃ©": 3872,
      "DO": 3873,
      "onare": 3874,
      "Ġreale": 3875,
      "Ġmesso": 3876,
      "Ġpubbliche": 3877,
      "Ġesame": 3878,
      "Ġmotivo": 3879,
      "Ġlato": 3880,
      "pren": 3881,
      "ght": 3882,
      "Ġvivere": 3883,
      "Ġeventuali": 3884,
      "Ġbisogna": 3885,
      "Ġprobabilmente": 3886,
      "ĠWil": 3887,
      "mblea": 3888,
      "55": 3889,
      "ĠNell": 3890,
      "Ġattribui": 3891,
      "Ġattenzione": 3892,
      "economia": 3893,
      "Ġinda": 3894,
      "Ġazienda": 3895,
      "mone": 3896,
      "ĠJohn": 3897,
      "Ġalterna": 3898,
      "Ġdep": 3899,
      "ĠGermania": 3900,
      "Ġtelevisi": 3901,
      "Ġarriva": 3902,
      "Ġregole": 3903,
      "Ġbella": 3904,
      "sÙī": 3905,
      "Ġdifferenza": 3906,
      "scono": 3907,
      "Ġmiei": 3908,
      "Ġcatto": 3909,
      "Ġconsa": 3910,
      "Ġdefinizione": 3911,
      "ĠGe": 3912,
      "epoca": 3913,
      "bur": 3914,
      "derÃł": 3915,
      "Ġnego": 3916,
      "ĠMol": 3917,
      "detti": 3918,
      "Ġriesce": 3919,
      "Ġnega": 3920,
      "Ġintra": 3921,
      "Ġricorso": 3922,
      "isco": 3923,
      "Ġfece": 3924,
      "rai": 3925,
      "Ġquell": 3926,
      "Âº": 3927,
      "ĠSanta": 3928,
      "Ġsess": 3929,
      "Ġgenitori": 3930,
      "ĠsÙī": 3931,
      "Ġvisita": 3932,
      "ĠAntonio": 3933,
      "Ġconso": 3934,
      "ĠÃĪ": 3935,
      "US": 3936,
      "oro": 3937,
      "ggiare": 3938,
      "ĠetÃł": 3939,
      "Ġnaturale": 3940,
      "fficiente": 3941,
      "lusconi": 3942,
      "Ġprevista": 3943,
      "ĠverrÃł": 3944,
      "Ġlivelli": 3945,
      "Ġlegitti": 3946,
      "Ġado": 3947,
      "roga": 3948,
      "Ġdentro": 3949,
      "Ġterrori": 3950,
      "blioteca": 3951,
      "Ġmu": 3952,
      "messa": 3953,
      "Ġnostre": 3954,
      "31": 3955,
      "Ġacco": 3956,
      "minare": 3957,
      "orsi": 3958,
      "torie": 3959,
      "im": 3960,
      "AG": 3961,
      "Ġprocedure": 3962,
      "scita": 3963,
      "ĠPaesi": 3964,
      "Ġpermette": 3965,
      "Ġcritica": 3966,
      "ĠFed": 3967,
      "mando": 3968,
      "ĠSch": 3969,
      "Ġcul": 3970,
      "voro": 3971,
      "Ġcomba": 3972,
      "Ġnucle": 3973,
      "Ġdeciso": 3974,
      "NI": 3975,
      "Ġcellu": 3976,
      "miche": 3977,
      "Ġpromuo": 3978,
      "Ġzone": 3979,
      "PO": 3980,
      "zzano": 3981,
      "mila": 3982,
      "Ġvittoria": 3983,
      "Ġdiretta": 3984,
      "Ġada": 3985,
      "Ġ1995": 3986,
      "Ġraccolta": 3987,
      "Ġ1994": 3988,
      "Ġbattaglia": 3989,
      "Ġpost": 3990,
      "enatore": 3991,
      "Ġmina": 3992,
      "fra": 3993,
      "Ġsuperfici": 3994,
      "Ġoperazioni": 3995,
      "ĠPietro": 3996,
      "Ġmessaggio": 3997,
      "Ġpoteva": 3998,
      "Ġcampagna": 3999,
      "Ġlibri": 4000,
      "Ġsingolo": 4001,
      "Ġsuccessive": 4002,
      "Ġalta": 4003,
      "Ġprevi": 4004,
      "ĠBen": 4005,
      "ĠMedi": 4006,
      "60": 4007,
      "ttavia": 4008,
      "Ġmassa": 4009,
      "Ġmotiva": 4010,
      "alora": 4011,
      "Ġsuccessivamente": 4012,
      "Ġreddi": 4013,
      "Ġpersonaggi": 4014,
      "Ġalcun": 4015,
      "Ġpal": 4016,
      "ranti": 4017,
      "bal": 4018,
      "tutto": 4019,
      "pposizione": 4020,
      "Ġvilla": 4021,
      "ĠVenezia": 4022,
      "bale": 4023,
      "Ġmemoria": 4024,
      "ĠPal": 4025,
      "Ġcompletamente": 4026,
      "tini": 4027,
      "tÃ²": 4028,
      "====": 4029,
      "viamente": 4030,
      "Ġgradu": 4031,
      "Ġgrave": 4032,
      "Ġcompetenze": 4033,
      "Ġ35": 4034,
      "roni": 4035,
      "Ġgarantire": 4036,
      "gici": 4037,
      "ds": 4038,
      "ossa": 4039,
      "Ġtrasforma": 4040,
      "Ġnoto": 4041,
      "Ġcomun": 4042,
      "Ġdichiarazione": 4043,
      "32": 4044,
      "Ġdimenti": 4045,
      "III": 4046,
      "Ġformula": 4047,
      "88": 4048,
      "Ġrimane": 4049,
      "Ġfemmini": 4050,
      "lievo": 4051,
      "44": 4052,
      "Ġchiaro": 4053,
      "The": 4054,
      "Ġraggiungere": 4055,
      "ico": 4056,
      "ssand": 4057,
      "Ġorigine": 4058,
      "del": 4059,
      "Ġsole": 4060,
      "Ġpieno": 4061,
      "gresso": 4062,
      "ple": 4063,
      "Ġacqua": 4064,
      "Ġdisponibili": 4065,
      "Ġincre": 4066,
      "Ġtedes": 4067,
      "boli": 4068,
      "Ġcomplesso": 4069,
      "ĠSul": 4070,
      ".)": 4071,
      "cini": 4072,
      "Ġdisegno": 4073,
      "Ġagi": 4074,
      "Ġgiudice": 4075,
      "ĠÃ©": 4076,
      "sidenza": 4077,
      "Ġapprofon": 4078,
      "Ġfarma": 4079,
      "Ġcarica": 4080,
      "biettivo": 4081,
      "matori": 4082,
      "ftware": 4083,
      "Ġricos": 4084,
      "Ġprossimo": 4085,
      "useo": 4086,
      "erto": 4087,
      "Ġpensiero": 4088,
      "enne": 4089,
      "Ġrendere": 4090,
      "Ġconcentra": 4091,
      "Ġprivati": 4092,
      "minazione": 4093,
      "cialmente": 4094,
      "97": 4095,
      "Ġposso": 4096,
      "Ġinn": 4097,
      "Ġindipen": 4098,
      "Ġdenomina": 4099,
      "ĠIs": 4100,
      "inanza": 4101,
      "autore": 4102,
      "Ġebbe": 4103,
      "renti": 4104,
      "anitÃł": 4105,
      "Ġlasci": 4106,
      "Ġdistanza": 4107,
      "Ġmateriali": 4108,
      "turi": 4109,
      "come": 4110,
      "int": 4111,
      "ggere": 4112,
      "neo": 4113,
      "gs": 4114,
      "Ġconfronto": 4115,
      "Ġcontenuto": 4116,
      "ĠGes": 4117,
      "Ġavanza": 4118,
      "Ġbambino": 4119,
      "Ġcondanna": 4120,
      "gro": 4121,
      "utati": 4122,
      "Ġpiace": 4123,
      "estra": 4124,
      "Ġ60": 4125,
      "Ġinsegn": 4126,
      "Ġevidente": 4127,
      "Ġgoverna": 4128,
      "Ġitaliane": 4129,
      "onore": 4130,
      "Ġesperienza": 4131,
      "Ġvitti": 4132,
      "lante": 4133,
      "omeno": 4134,
      "Ġspecifica": 4135,
      "appro": 4136,
      "Ġparticolarmente": 4137,
      "Ġedizione": 4138,
      "Ġcinema": 4139,
      "ssero": 4140,
      "Ġapprovato": 4141,
      "ARE": 4142,
      "Ġpassaggio": 4143,
      "scio": 4144,
      "Ġmette": 4145,
      "Ġeventi": 4146,
      "ĠCro": 4147,
      "ĠCha": 4148,
      "troppo": 4149,
      "Ġportare": 4150,
      "Ġpubblicazione": 4151,
      "Ġmuo": 4152,
      "Ġtrasc": 4153,
      "Ġtemi": 4154,
      "Ġsettori": 4155,
      "minato": 4156,
      "Ġlancia": 4157,
      "gnata": 4158,
      "Ġaccer": 4159,
      "Ġprezzo": 4160,
      "ons": 4161,
      "Ġriduzione": 4162,
      "Ġpassi": 4163,
      "rne": 4164,
      "Ġcommercio": 4165,
      "esperienza": 4166,
      "orme": 4167,
      "ego": 4168,
      "ĠAv": 4169,
      "Ġinsta": 4170,
      "Ġdef": 4171,
      "erare": 4172,
      "Ġnumer": 4173,
      "Ġqua": 4174,
      "Ġlibero": 4175,
      "Ġventi": 4176,
      "rore": 4177,
      "Ġdigi": 4178,
      ".....": 4179,
      "Ġind": 4180,
      "Ġpasso": 4181,
      "Ġpartita": 4182,
      "Ġsopp": 4183,
      "MEN": 4184,
      "pr": 4185,
      "ĠCristo": 4186,
      "ĠPia": 4187,
      "ANO": 4188,
      "tuna": 4189,
      "Ġmedio": 4190,
      "Ġcentri": 4191,
      "gan": 4192,
      "amministrazione": 4193,
      "by": 4194,
      "vile": 4195,
      "ĠPRES": 4196,
      "bio": 4197,
      "Ġutenti": 4198,
      "ologia": 4199,
      "Ġpagamento": 4200,
      "Ġbasso": 4201,
      "giche": 4202,
      "Ġcommissione": 4203,
      "Ġproposito": 4204,
      "loma": 4205,
      "Ġcur": 4206,
      "Ġtrasporto": 4207,
      "Ġ1993": 4208,
      "ombar": 4209,
      "Ġutile": 4210,
      "Ġimpa": 4211,
      "Ġpossesso": 4212,
      "Ġimpianti": 4213,
      "Ġgri": 4214,
      "ĠBerlusconi": 4215,
      "ĠQU": 4216,
      "Ġsport": 4217,
      "Ġquota": 4218,
      "ĠFra": 4219,
      "essere": 4220,
      "Ġadesso": 4221,
      "ua": 4222,
      "Ġfuoco": 4223,
      "Ġdibatti": 4224,
      "estero": 4225,
      "Ġcalcio": 4226,
      "Ġdiverso": 4227,
      "Ġelezioni": 4228,
      "Ġestra": 4229,
      "Ġterza": 4230,
      "Ġspiega": 4231,
      "Ġmilitari": 4232,
      "Ġge": 4233,
      "Ġstand": 4234,
      "Ġ''": 4235,
      "Ġcomunica": 4236,
      "anismi": 4237,
      "intervento": 4238,
      "Ġ1992": 4239,
      "Ġvigi": 4240,
      "ĠKa": 4241,
      "rietÃł": 4242,
      "Ġtrovano": 4243,
      "Ġsosp": 4244,
      "ĠPrima": 4245,
      "Ġmigliori": 4246,
      "voluzione": 4247,
      "Ġmonta": 4248,
      "Ġcapito": 4249,
      "cy": 4250,
      "Ġrealizzare": 4251,
      "Ġpale": 4252,
      "Ġconcre": 4253,
      "ĠYork": 4254,
      "Ġeviden": 4255,
      "viene": 4256,
      "Ġposta": 4257,
      "Ġluoghi": 4258,
      "57": 4259,
      "Ġquarti": 4260,
      "Ġorigina": 4261,
      "Ġface": 4262,
      "ento": 4263,
      "omici": 4264,
      "volta": 4265,
      "nia": 4266,
      "licazione": 4267,
      "fre": 4268,
      "Ġconsiderato": 4269,
      "endere": 4270,
      "Ġpresti": 4271,
      "Ġcommerciali": 4272,
      "gnamento": 4273,
      "tuniten": 4274,
      "Ġcostru": 4275,
      "Ġleggere": 4276,
      "Ġcosid": 4277,
      "unti": 4278,
      "Ġveramente": 4279,
      "Ġtrovato": 4280,
      "Ġlinee": 4281,
      "Ġforti": 4282,
      "Ġvive": 4283,
      "Ġpreval": 4284,
      "Ġtrov": 4285,
      "ĠDel": 4286,
      "ĠMen": 4287,
      "Ġragioni": 4288,
      "Ġpolitici": 4289,
      "Ġpossibili": 4290,
      "Ġregime": 4291,
      "Ġcaval": 4292,
      "Ġsovra": 4293,
      "gnia": 4294,
      "lora": 4295,
      "Ġpromozione": 4296,
      "ill": 4297,
      "unico": 4298,
      "Ġmodificazioni": 4299,
      "Ġtradizione": 4300,
      "eff": 4301,
      "Ġispi": 4302,
      "ĠvolontÃł": 4303,
      "Ġesten": 4304,
      "Ġbasa": 4305,
      "erti": 4306,
      "Ġlimite": 4307,
      "Ġprove": 4308,
      "Ġimpedi": 4309,
      "Ġmusicale": 4310,
      "Ġobbliga": 4311,
      "tional": 4312,
      "Ġcomputer": 4313,
      "viamo": 4314,
      "can": 4315,
      "ĠRegi": 4316,
      "Ġsentenza": 4317,
      "Ġconoscere": 4318,
      "Ġpiedi": 4319,
      "visa": 4320,
      "Ġscio": 4321,
      "Ġfondi": 4322,
      "ppio": 4323,
      "stato": 4324,
      "Ġfondamentale": 4325,
      "Ġpagine": 4326,
      "Ġcanc": 4327,
      "ade": 4328,
      "Ġstatuniten": 4329,
      "gliato": 4330,
      "Ġemen": 4331,
      "Ġprocessi": 4332,
      "ĠTuttavia": 4333,
      "Ġsicuramente": 4334,
      "Ġvendita": 4335,
      "Ġminori": 4336,
      "Ġcontesto": 4337,
      "stere": 4338,
      "ĠdÃł": 4339,
      "Ġdipendenti": 4340,
      "Ġscom": 4341,
      "aria": 4342,
      "Ġmente": 4343,
      "ĠNord": 4344,
      "Ġacquisi": 4345,
      "ĠBre": 4346,
      "ĠCit": 4347,
      "ALE": 4348,
      "gnor": 4349,
      "Ġvie": 4350,
      "ĠâĢĺ": 4351,
      "Ġpropone": 4352,
      "estival": 4353,
      "pevole": 4354,
      "Ġpossiamo": 4355,
      "Ġstudia": 4356,
      "Ġtenuto": 4357,
      "Ġdimensioni": 4358,
      "rina": 4359,
      "Ġdiventare": 4360,
      "Ġsale": 4361,
      "Ġuffici": 4362,
      "Ġcontributi": 4363,
      "Ġincom": 4364,
      "Ġfede": 4365,
      "Ġcata": 4366,
      "Ġstatu": 4367,
      "Ġfacile": 4368,
      "Ġmacchina": 4369,
      "Ġafferma": 4370,
      "enzia": 4371,
      "ley": 4372,
      "Ġsfor": 4373,
      "Re": 4374,
      "ĠlÃł": 4375,
      "ssia": 4376,
      "isa": 4377,
      "Ġmedico": 4378,
      "Ġabbiano": 4379,
      "UR": 4380,
      "ĠProf": 4381,
      "ĠvelocitÃł": 4382,
      "Ġbel": 4383,
      "Ġelettri": 4384,
      "Ġaspetta": 4385,
      "Ġumana": 4386,
      "Ġsimile": 4387,
      "MO": 4388,
      "Ġaere": 4389,
      "Ġorienta": 4390,
      "anismo": 4391,
      "ttivi": 4392,
      "Ġformato": 4393,
      "Ġprovinciale": 4394,
      "EC": 4395,
      "bella": 4396,
      "Ġfinanziaria": 4397,
      "Ġconsegui": 4398,
      "Ġbanca": 4399,
      "Ġpotuto": 4400,
      "90": 4401,
      "Ġintende": 4402,
      "Ġcorte": 4403,
      "Ġambientale": 4404,
      "ada": 4405,
      "Ġoperatori": 4406,
      "remo": 4407,
      "stente": 4408,
      "utato": 4409,
      "Ġtur": 4410,
      "Ġcredi": 4411,
      "ĠAR": 4412,
      "Ġnar": 4413,
      "ker": 4414,
      "Ġpena": 4415,
      "ĠDELLA": 4416,
      "ĠPag": 4417,
      "Ġannuncia": 4418,
      "ferenza": 4419,
      "Ġmaschi": 4420,
      "Ġsituato": 4421,
      "&#": 4422,
      "Ġimmo": 4423,
      "ttare": 4424,
      "ED": 4425,
      "ĠCosÙī": 4426,
      "dis": 4427,
      "BI": 4428,
      "Ġcolore": 4429,
      "Ġepiso": 4430,
      "etra": 4431,
      "Ġcast": 4432,
      "Ġnumeri": 4433,
      "eranno": 4434,
      "rui": 4435,
      "MI": 4436,
      "Ġcresc": 4437,
      "Ġrichieste": 4438,
      "70": 4439,
      "Ġarmi": 4440,
      "ĠImp": 4441,
      "bina": 4442,
      "ĠInterna": 4443,
      "Ġapplicazione": 4444,
      "cate": 4445,
      "Pa": 4446,
      "Ġ01": 4447,
      "sando": 4448,
      "Ġrealizzato": 4449,
      "ric": 4450,
      "ddo": 4451,
      "Ġscientifica": 4452,
      "Istituto": 4453,
      "Ġelabo": 4454,
      "Ġconven": 4455,
      "Ġaltra": 4456,
      "Ġchiamato": 4457,
      "Ġsupporto": 4458,
      "Ġfam": 4459,
      "Ġinterno": 4460,
      "ĠVI": 4461,
      "Ġprogrammazione": 4462,
      "Ġbelle": 4463,
      "Ġconsiderazione": 4464,
      "Ġqualifica": 4465,
      "Ġricorda": 4466,
      "Ġpermesso": 4467,
      "ĠTale": 4468,
      "Ġsuperficie": 4469,
      "Ġmagari": 4470,
      "ĠSU": 4471,
      "venta": 4472,
      "Ġmodu": 4473,
      "Ġtestimoni": 4474,
      "Ġconfi": 4475,
      "mamente": 4476,
      "Ġrequisiti": 4477,
      "Ġprende": 4478,
      "tuali": 4479,
      "Ġoriginale": 4480,
      "Ġritor": 4481,
      "Ġprospetti": 4482,
      "Ġsequ": 4483,
      "ICA": 4484,
      "ĠAlle": 4485,
      "SS": 4486,
      "Ġprotagonista": 4487,
      "Ġmembro": 4488,
      "Ġmatri": 4489,
      "ĠSil": 4490,
      "fano": 4491,
      "ssime": 4492,
      "Ġfiglia": 4493,
      "eratore": 4494,
      "Ġconvo": 4495,
      "Ġpassare": 4496,
      "ĠColle": 4497,
      "dite": 4498,
      "impresa": 4499,
      "ettazione": 4500,
      "ciano": 4501,
      "Ġscher": 4502,
      "und": 4503,
      "Ġsituazioni": 4504,
      "Ġbelli": 4505,
      "Ġorganizzazioni": 4506,
      "ĠÂ·": 4507,
      "ufficio": 4508,
      "ramento": 4509,
      "tone": 4510,
      "informazione": 4511,
      "Ġleader": 4512,
      "Ġutilizzare": 4513,
      "inizia": 4514,
      "ĠBri": 4515,
      "Ġaperto": 4516,
      "Ġdesi": 4517,
      "Ġriconoscimento": 4518,
      "dirittura": 4519,
      "Ġfenomeno": 4520,
      "done": 4521,
      "Ġlettura": 4522,
      "Ġ2006": 4523,
      "Ġrilascia": 4524,
      "Ġpaura": 4525,
      "ĠPubbli": 4526,
      "Ġstazione": 4527,
      "rla": 4528,
      "Ġcosci": 4529,
      "ĠGrazie": 4530,
      "erimento": 4531,
      "Ġweb": 4532,
      "Ġreti": 4533,
      "accesso": 4534,
      "Ġalcuna": 4535,
      "--------------------------------": 4536,
      "Ġulteriori": 4537,
      "Ġmagistra": 4538,
      "Ġlavorare": 4539,
      "Ġinflu": 4540,
      "nico": 4541,
      "Ġprestazioni": 4542,
      "ĠGI": 4543,
      "ortato": 4544,
      "58": 4545,
      "Ġcompito": 4546,
      "Ġrefer": 4547,
      "Ġgiusto": 4548,
      "Ġrifer": 4549,
      "Ġritiene": 4550,
      "Ġfondamentali": 4551,
      "Ġsingoli": 4552,
      "96": 4553,
      "ĠFe": 4554,
      "Ġrelazioni": 4555,
      "Di": 4556,
      "Ġconseguenza": 4557,
      "ĠGeno": 4558,
      "Pro": 4559,
      "istica": 4560,
      "egli": 4561,
      "gretario": 4562,
      "Ġaddirittura": 4563,
      "Ġamico": 4564,
      "Ġpiccole": 4565,
      "Ġdevo": 4566,
      "Ġove": 4567,
      "cÃ²": 4568,
      "obiettivo": 4569,
      "Ġattuazione": 4570,
      "Ġfol": 4571,
      "Ġaccordo": 4572,
      "ĠAuto": 4573,
      "PP": 4574,
      "cili": 4575,
      "Ġfeli": 4576,
      "astanza": 4577,
      "Ġchiesto": 4578,
      "Ġtel": 4579,
      "Ġfissa": 4580,
      "Ġmancanza": 4581,
      "Ġlista": 4582,
      "pie": 4583,
      "mericano": 4584,
      "dex": 4585,
      "Ġnessun": 4586,
      "Ġarrivare": 4587,
      "Ġmater": 4588,
      "ortare": 4589,
      "Ġdisse": 4590,
      "Ġautore": 4591,
      "Ġteatro": 4592,
      "damenti": 4593,
      "dico": 4594,
      "ĠAlessand": 4595,
      "Ġinsi": 4596,
      "Ġrischi": 4597,
      "ĠCA": 4598,
      "Ġillustra": 4599,
      "mmeno": 4600,
      "ĠTea": 4601,
      "Ġnumerose": 4602,
      "ĠEra": 4603,
      "Ġriguard": 4604,
      "raq": 4605,
      "ĠQui": 4606,
      "attuale": 4607,
      "sili": 4608,
      "escovo": 4609,
      "tis": 4610,
      "bar": 4611,
      "ĠSud": 4612,
      "Ġdina": 4613,
      "ok": 4614,
      "Ġsala": 4615,
      "Ġint": 4616,
      "Ġdivenne": 4617,
      "Ġdistribuzione": 4618,
      "now": 4619,
      "Ġdar": 4620,
      "ete": 4621,
      "ĠSenato": 4622,
      "Ġavver": 4623,
      "Ġrende": 4624,
      "Au": 4625,
      "dali": 4626,
      "gendo": 4627,
      "Ġcase": 4628,
      "Ġsoprav": 4629,
      "applicazione": 4630,
      "Ġsali": 4631,
      "Ġsvolta": 4632,
      "ĠCiao": 4633,
      "enco": 4634,
      "Ġesperienze": 4635,
      "Ġidee": 4636,
      "ĠLuigi": 4637,
      "Ġchiu": 4638,
      "Ġcostituzionale": 4639,
      "crizione": 4640,
      "liari": 4641,
      "cli": 4642,
      "Ġdovranno": 4643,
      "Ġoccid": 4644,
      "Ġprese": 4645,
      "cchie": 4646,
      "Ġth": 4647,
      "Ġlega": 4648,
      "gramma": 4649,
      "ĠEl": 4650,
      "ĠLib": 4651,
      "Ġfratello": 4652,
      "Ġsostan": 4653,
      "Ġeuropei": 4654,
      "je": 4655,
      "Ġvecchio": 4656,
      "Ġoper": 4657,
      "Dopo": 4658,
      "Ġprezzi": 4659,
      "unzione": 4660,
      "Ġentrambi": 4661,
      "tui": 4662,
      "missa": 4663,
      "75": 4664,
      "Ġcommi": 4665,
      "Ġattualmente": 4666,
      "ĠSoci": 4667,
      "Ġabbastanza": 4668,
      "ĠautoritÃł": 4669,
      "teriore": 4670,
      "mme": 4671,
      "Ġdiversa": 4672,
      "Ġmanifestazione": 4673,
      "prire": 4674,
      "Ġnotizia": 4675,
      "Ġemo": 4676,
      "Ġ1990": 4677,
      "tranno": 4678,
      "ĠEmi": 4679,
      "Ġtan": 4680,
      "rea": 4681,
      "grafico": 4682,
      "Ġmodifiche": 4683,
      "impor": 4684,
      "dustria": 4685,
      "ricol": 4686,
      "Ġrientra": 4687,
      "gior": 4688,
      "Ġmodelli": 4689,
      "Ġracco": 4690,
      "ong": 4691,
      "Ġchiedere": 4692,
      "ĠTutti": 4693,
      "ĠLond": 4694,
      "Ġsemplicemente": 4695,
      "nali": 4696,
      "Ġpersonaggio": 4697,
      "ccup": 4698,
      "ĠVe": 4699,
      "Ġlabora": 4700,
      "ces": 4701,
      "Ġscrive": 4702,
      "ttato": 4703,
      "Ġbattu": 4704,
      "Ġprocedimento": 4705,
      "Ġdanni": 4706,
      "vamo": 4707,
      "Ġdiffusione": 4708,
      "ĠSpe": 4709,
      "Ġdocumentazione": 4710,
      "Ġsangue": 4711,
      "Ġtante": 4712,
      "Ġvale": 4713,
      "Ġpatrimonio": 4714,
      "eme": 4715,
      "En": 4716,
      "ĠPerchÃ©": 4717,
      "ÂŃ": 4718,
      "giu": 4719,
      "Ġconsigli": 4720,
      "GI": 4721,
      "erata": 4722,
      "aper": 4723,
      "Ġsfru": 4724,
      "Ġpartecipare": 4725,
      "Ġcreazione": 4726,
      "terra": 4727,
      "Ġamministrativa": 4728,
      "Ġconti": 4729,
      "Ġ36": 4730,
      "Ġcopertura": 4731,
      "Ġpreoccupa": 4732,
      "Ġumano": 4733,
      "inio": 4734,
      "Ġbianco": 4735,
      "tal": 4736,
      "Ġlunghe": 4737,
      "Ġplu": 4738,
      "ĠlÙī": 4739,
      "forum": 4740,
      "Ġriba": 4741,
      "Ġdedicato": 4742,
      "frica": 4743,
      "ĠGesÃ¹": 4744,
      "sche": 4745,
      "Ġassicura": 4746,
      "ĠCons": 4747,
      "Ġnasc": 4748,
      "Ġbal": 4749,
      "Ġnaturali": 4750,
      "Ġmila": 4751,
      "Ġidone": 4752,
      "Ġrappresentanti": 4753,
      "immagine": 4754,
      "Ġsocio": 4755,
      "Ġsarebbero": 4756,
      "Ġvice": 4757,
      "Ġspagno": 4758,
      "Ġres": 4759,
      "Ġmattina": 4760,
      "mini": 4761,
      "Ġmono": 4762,
      "ĠIns": 4763,
      "issione": 4764,
      "tun": 4765,
      "Ġsoddisfa": 4766,
      "Ġsullo": 4767,
      "Ġamministrazione": 4768,
      "Ġcontratti": 4769,
      "Ġsoftware": 4770,
      "Ġspirito": 4771,
      "anne": 4772,
      "obbli": 4773,
      "orig": 4774,
      "Ġreso": 4775,
      "Ġsino": 4776,
      "ĠCir": 4777,
      "Ġrichie": 4778,
      "vel": 4779,
      "Ġamore": 4780,
      "Ġdio": 4781,
      "Ġscelte": 4782,
      "Ġpotranno": 4783,
      "Ġaffrontare": 4784,
      "Ġstrade": 4785,
      "ĠDani": 4786,
      "ĠInfatti": 4787,
      "enziali": 4788,
      "genzia": 4789,
      "zzetta": 4790,
      "ccare": 4791,
      "ĠCasa": 4792,
      "bita": 4793,
      "ĠMu": 4794,
      "album": 4795,
      "Ġanali": 4796,
      "Ġesclusivamente": 4797,
      "cilia": 4798,
      "arri": 4799,
      "Ġfan": 4800,
      "utilizzo": 4801,
      "Ġpeso": 4802,
      "Ġdiploma": 4803,
      "MP": 4804,
      "partimento": 4805,
      "Ġsiti": 4806,
      "Ġcontribu": 4807,
      "Ġpredisp": 4808,
      "rei": 4809,
      "incontro": 4810,
      "Ri": 4811,
      "ducia": 4812,
      "Ġinformazione": 4813,
      "201": 4814,
      "Ġscolastico": 4815,
      "Ġcandidato": 4816,
      "forme": 4817,
      "Ġconsente": 4818,
      "ĠOggi": 4819,
      "ĠBor": 4820,
      "Ġscritta": 4821,
      "Ġinteressati": 4822,
      "Ã¡": 4823,
      "Ġsuccessivi": 4824,
      "Ġanalisi": 4825,
      "Ġeffetto": 4826,
      "ĠStra": 4827,
      "Lo": 4828,
      "Ġdenuncia": 4829,
      "Ġcercare": 4830,
      "ĠArticolo": 4831,
      "ĠSco": 4832,
      "Ġarchite": 4833,
      "Ġspettacolo": 4834,
      "Ġcostante": 4835,
      "ĠGian": 4836,
      "Ġamministrazioni": 4837,
      "simi": 4838,
      "TTI": 4839,
      "Ġ09": 4840,
      "Ġscrivere": 4841,
      "Ġsvolgimento": 4842,
      "Ġvis": 4843,
      "Ġinizio": 4844,
      "renza": 4845,
      "duti": 4846,
      "Ġnemmeno": 4847,
      "otti": 4848,
      "Ġscene": 4849,
      "Ġdialo": 4850,
      "Ġfiume": 4851,
      "59": 4852,
      "inione": 4853,
      "bbene": 4854,
      "Ġam": 4855,
      "Ġfabb": 4856,
      "Ġfio": 4857,
      "Ġmoto": 4858,
      "Ġassolutamente": 4859,
      "ĠEdi": 4860,
      "gante": 4861,
      "Ġprio": 4862,
      "web": 4863,
      "ndo": 4864,
      "ĠVol": 4865,
      "Ġvisione": 4866,
      "guardo": 4867,
      "Ġnascita": 4868,
      "Ġentrare": 4869,
      "Ġutilizzato": 4870,
      "Ġsegno": 4871,
      "Ġacque": 4872,
      "Ġconsider": 4873,
      "86": 4874,
      "raneo": 4875,
      "Ġracc": 4876,
      "Ġultimo": 4877,
      "Ġragazza": 4878,
      "sten": 4879,
      "ĠquantitÃł": 4880,
      "Ġcamm": 4881,
      "\"),": 4882,
      "54": 4883,
      "Ġprogressi": 4884,
      "Ġfemminile": 4885,
      "bert": 4886,
      "ĠGui": 4887,
      "iniziativa": 4888,
      "Ġdirettiva": 4889,
      "ĠSignore": 4890,
      "Ġvet": 4891,
      "ĠParigi": 4892,
      "ĠIV": 4893,
      "Â°Â°": 4894,
      "Ġoccorre": 4895,
      "Ġpeggio": 4896,
      "Ġacquis": 4897,
      "Ġbor": 4898,
      "Ġmotore": 4899,
      "Ġmus": 4900,
      "Ġdomenica": 4901,
      "ĠGiunta": 4902,
      "bis": 4903,
      "Ġdiscorso": 4904,
      "Ġvei": 4905,
      "Ġantici": 4906,
      "tec": 4907,
      "Ġmiglia": 4908,
      "Ġugu": 4909,
      "logo": 4910,
      "Ġsindaco": 4911,
      "dotti": 4912,
      "Ġpossano": 4913,
      "pito": 4914,
      "ĠTos": 4915,
      "ĠAg": 4916,
      "ĠPalazzo": 4917,
      "Ġ06": 4918,
      "pic": 4919,
      "analisi": 4920,
      "sivo": 4921,
      "Ġcollega": 4922,
      "erati": 4923,
      "\";": 4924,
      "No": 4925,
      "Ġsalva": 4926,
      "Ġfornire": 4927,
      "Ġpom": 4928,
      "Ġmalattia": 4929,
      "estre": 4930,
      "Ġprovvedimenti": 4931,
      "Ġdibattito": 4932,
      "Ġminore": 4933,
      "gene": 4934,
      "Ġchiama": 4935,
      "Ġille": 4936,
      "Ġappunto": 4937,
      "Ġsomma": 4938,
      "Ġcontemporanea": 4939,
      "Ġsolida": 4940,
      "ĠCu": 4941,
      "Ġmorti": 4942,
      "Ġacce": 4943,
      "OLO": 4944,
      "tÃ¹": 4945,
      "view": 4946,
      "tes": 4947,
      "Ġcontatto": 4948,
      "Ġstranieri": 4949,
      "Ġcosi": 4950,
      "Ġconcetto": 4951,
      "Ġnotizie": 4952,
      "Ġsilen": 4953,
      "ĠDurante": 4954,
      "Ġfortuna": 4955,
      "ado": 4956,
      "anima": 4957,
      "CC": 4958,
      "Ġvennero": 4959,
      "Ġ2010": 4960,
      "ps": 4961,
      "ende": 4962,
      "euro": 4963,
      "ĠfacoltÃł": 4964,
      "ĠLin": 4965,
      "Ġsucce": 4966,
      "Ġpresentare": 4967,
      "Ġfirma": 4968,
      "Ġpon": 4969,
      "Ġbol": 4970,
      "Ġassum": 4971,
      "mentato": 4972,
      "Ġusare": 4973,
      "Ġnato": 4974,
      "van": 4975,
      "tella": 4976,
      "Ġoffre": 4977,
      "Ġosta": 4978,
      "ĠEr": 4979,
      "Ġvinto": 4980,
      "ĠBr": 4981,
      "Ġtenere": 4982,
      "ĠSI": 4983,
      "ud": 4984,
      "inisce": 4985,
      "Ġdisponibile": 4986,
      "gnazione": 4987,
      "Ġdichiarato": 4988,
      "Ġprofession": 4989,
      "Ġsuperiori": 4990,
      "mpe": 4991,
      "esca": 4992,
      "Ġanch": 4993,
      "ĠQuesti": 4994,
      "Ġesse": 4995,
      "Ġ1991": 4996,
      "glior": 4997,
      "inta": 4998,
      "logie": 4999,
      "Ġromanzo": 5000,
      "Ġcostruire": 5001,
      "Ġtratto": 5002,
      "Ġorg": 5003,
      "Ġtess": 5004,
      "Ġcolori": 5005,
      "Ġeste": 5006,
      "Ġrivel": 5007,
      "Ġufficiali": 5008,
      "zzazioni": 5009,
      "sile": 5010,
      "Ġtraccia": 5011,
      "Ġforum": 5012,
      "omanda": 5013,
      "pressione": 5014,
      "denze": 5015,
      "intera": 5016,
      "Ġsviluppa": 5017,
      "Ġcanzone": 5018,
      "log": 5019,
      "Ġderiv": 5020,
      "enn": 5021,
      "Ġminimo": 5022,
      "Ġpoche": 5023,
      "Ġcart": 5024,
      "ĠSca": 5025,
      "Ġquestioni": 5026,
      "ĠBro": 5027,
      "ĠFre": 5028,
      "spe": 5029,
      "andosi": 5030,
      "Ġgiudizia": 5031,
      "onimo": 5032,
      "ĠRai": 5033,
      "Ġdeterminato": 5034,
      "Ġson": 5035,
      "Ġdeten": 5036,
      "lay": 5037,
      "Ġcostituito": 5038,
      "lico": 5039,
      "Ġmedesimo": 5040,
      "Ġrecupero": 5041,
      "Ġsquadre": 5042,
      "ĠQuindi": 5043,
      "Ġfossero": 5044,
      "fferta": 5045,
      "Ġtorn": 5046,
      "Ġeduca": 5047,
      "Ġtera": 5048,
      "ĠDipartimento": 5049,
      "Ġcostituisce": 5050,
      "ĠMario": 5051,
      "Ġvoluto": 5052,
      "emen": 5053,
      "sano": 5054,
      "inge": 5055,
      "Ġdistribui": 5056,
      "Ġtecnici": 5057,
      "ĠGenova": 5058,
      "Ġconflitto": 5059,
      "ĠdisponibilitÃł": 5060,
      "Ġpermet": 5061,
      "Ġforn": 5062,
      "ull": 5063,
      "ffico": 5064,
      "Ġfinalmente": 5065,
      "sole": 5066,
      "Ġ05": 5067,
      "cenze": 5068,
      "ggiato": 5069,
      "bini": 5070,
      "Ġricordo": 5071,
      "ĠLegge": 5072,
      "Ġliqui": 5073,
      "Ġpreferi": 5074,
      "desco": 5075,
      "Ġspazi": 5076,
      "Ġsorta": 5077,
      "attenzione": 5078,
      "Mi": 5079,
      "Ġtecnologie": 5080,
      "acqu": 5081,
      "ĠTerra": 5082,
      "Ġintera": 5083,
      "legge": 5084,
      "Ġscientifico": 5085,
      "Ġpotrebbero": 5086,
      "ĠGruppo": 5087,
      "Ġcielo": 5088,
      "inalitÃł": 5089,
      "Ġevidenzia": 5090,
      "Ġdramma": 5091,
      "ĠAndrea": 5092,
      "Ġrie": 5093,
      "riche": 5094,
      "Ġlettere": 5095,
      "Ġimmediatamente": 5096,
      "Ã¼": 5097,
      "Ġfrequenta": 5098,
      "conda": 5099,
      "Ġazione": 5100,
      "ĠEcco": 5101,
      "Ġvinci": 5102,
      "ĠNei": 5103,
      "Ġpsicolo": 5104,
      "inci": 5105,
      "Ġere": 5106,
      "Ġquarto": 5107,
      "Ġfarlo": 5108,
      "43": 5109,
      "Ġmetro": 5110,
      "Ġaccade": 5111,
      "golo": 5112,
      "ov": 5113,
      "Ġsolito": 5114,
      "Ġpremio": 5115,
      "GLI": 5116,
      "vola": 5117,
      "ĠOli": 5118,
      "voca": 5119,
      "Ġsoldi": 5120,
      "41": 5121,
      "89": 5122,
      "Ġincontri": 5123,
      "Ġporto": 5124,
      "Ġnomi": 5125,
      "amm": 5126,
      "ĠGro": 5127,
      "intero": 5128,
      "gnano": 5129,
      "Ġrivista": 5130,
      "ĠBus": 5131,
      "Ġtr": 5132,
      "ĠTutto": 5133,
      "Ġnero": 5134,
      "Ġconclusione": 5135,
      "Ġpiacere": 5136,
      "ĠDon": 5137,
      "Ġaccetta": 5138,
      "Ġstandard": 5139,
      "Ġspos": 5140,
      "Ġpian": 5141,
      "ttivitÃł": 5142,
      "mal": 5143,
      "Ġrifiuti": 5144,
      "Ġrelatore": 5145,
      "Ġsignificato": 5146,
      "Ġtren": 5147,
      "Ġsoggior": 5148,
      "Ġbio": 5149,
      "Ġlaurea": 5150,
      "Ġconferma": 5151,
      "Ġcompetente": 5152,
      "Ġassieme": 5153,
      "Ġimpegno": 5154,
      "Ġcopia": 5155,
      "dd": 5156,
      "Ġage": 5157,
      "ERA": 5158,
      "Ġirre": 5159,
      "Ġprofilo": 5160,
      "Ġesami": 5161,
      "Ġfascia": 5162,
      "87": 5163,
      "ermo": 5164,
      "posto": 5165,
      "struttura": 5166,
      "Ġvoglio": 5167,
      "Ġpenale": 5168,
      "Associazione": 5169,
      "Ġottenuto": 5170,
      "Ġtornare": 5171,
      "ĠInf": 5172,
      "Ġfalli": 5173,
      "Ġavvia": 5174,
      "Ġspecifiche": 5175,
      "mpre": 5176,
      "Ġvolume": 5177,
      "Ġcompagnia": 5178,
      "Ġdocenti": 5179,
      "Ġbritan": 5180,
      "Ġbis": 5181,
      "ĠÃ¢": 5182,
      "Ġsap": 5183,
      "Ġnasce": 5184,
      "Ġovviamente": 5185,
      "Ġperce": 5186,
      "42": 5187,
      "Ġsoffer": 5188,
      "ĠLE": 5189,
      "Ġagrico": 5190,
      "bali": 5191,
      "llare": 5192,
      "Ġ45": 5193,
      "ĠHe": 5194,
      "Ġmissione": 5195,
      "Ġtrasmissione": 5196,
      "Ġcerta": 5197,
      "ĠCapo": 5198,
      "Ġsvolto": 5199,
      "dro": 5200,
      "Ġavendo": 5201,
      "Ġterreno": 5202,
      "Ġesplo": 5203,
      "Ġcomposto": 5204,
      "Ġvoti": 5205,
      "ĠCe": 5206,
      "Ġnessuna": 5207,
      "Ġmicro": 5208,
      "esistenza": 5209,
      "85": 5210,
      "nica": 5211,
      "ondazione": 5212,
      "Ġgravi": 5213,
      "industria": 5214,
      "erdÙī": 5215,
      "Ġsemi": 5216,
      "Amministrazione": 5217,
      "Com": 5218,
      "ggiamento": 5219,
      "Ġlegale": 5220,
      "ĠTro": 5221,
      "ANI": 5222,
      "onata": 5223,
      "bria": 5224,
      "ĠOgni": 5225,
      "lizia": 5226,
      "mor": 5227,
      "Ġnecessarie": 5228,
      "Ġrispar": 5229,
      "obbligo": 5230,
      "gar": 5231,
      "********": 5232,
      "Ġviolenza": 5233,
      "ustria": 5234,
      "FF": 5235,
      "enna": 5236,
      "Ġtedesco": 5237,
      "ipo": 5238,
      "Ġcomando": 5239,
      "Ġnn": 5240,
      "Ġdemocrazia": 5241,
      "ĠSpi": 5242,
      "Ġattuale": 5243,
      "ondi": 5244,
      "66": 5245,
      "Ġavviene": 5246,
      "Ġpoesi": 5247,
      "Ġtranqu": 5248,
      "Ġprescri": 5249,
      "Ġpesca": 5250,
      "Ġcoordinamento": 5251,
      "sal": 5252,
      "Ġdecor": 5253,
      "ĠTur": 5254,
      "Ġragazzo": 5255,
      "fficiale": 5256,
      "ficata": 5257,
      "ĠXX": 5258,
      "Ġdobbiamo": 5259,
      "Ġproto": 5260,
      "Ġmedie": 5261,
      "Ġatle": 5262,
      "Ġrisa": 5263,
      "matico": 5264,
      "Ġtardi": 5265,
      "Ġcivili": 5266,
      "vide": 5267,
      "ĠavrÃł": 5268,
      "Ġcittadino": 5269,
      "Ġstava": 5270,
      "ves": 5271,
      "Ġcondu": 5272,
      "Ġattesa": 5273,
      "pole": 5274,
      "Ġprofonda": 5275,
      "Ġtentativo": 5276,
      "Ġextra": 5277,
      "ltÃł": 5278,
      "Ġband": 5279,
      "Ġprivato": 5280,
      "Ġsabato": 5281,
      "Ġcontrolla": 5282,
      "Ġseguire": 5283,
      "Ġricevuto": 5284,
      "Ġassistenza": 5285,
      "ĠWin": 5286,
      "ĠParti": 5287,
      "Ġflu": 5288,
      "America": 5289,
      "Ġsettimane": 5290,
      "uito": 5291,
      "Ġkm": 5292,
      "occasione": 5293,
      "read": 5294,
      "Ġcommerciale": 5295,
      "associazione": 5296,
      "ĠMA": 5297,
      "canti": 5298,
      "Ġgener": 5299,
      "Ġcompagni": 5300,
      "Ġpercen": 5301,
      "Ġipotesi": 5302,
      "Ġspia": 5303,
      "onn": 5304,
      "ĠBru": 5305,
      "Ġconcerto": 5306,
      "Ġprevisione": 5307,
      "edono": 5308,
      "livo": 5309,
      "Ġcomportamento": 5310,
      "ĠLondra": 5311,
      "Ġpresa": 5312,
      "Ġconcern": 5313,
      "Ġpelle": 5314,
      "Ġripren": 5315,
      "Ġimmi": 5316,
      "Ġcollabora": 5317,
      "ĠSP": 5318,
      "Ġentrata": 5319,
      "Ġsimili": 5320,
      "vello": 5321,
      "Ġresponsabili": 5322,
      "ĠâĢ¢": 5323,
      "ĠGiorgio": 5324,
      "ĠRoberto": 5325,
      "Ġgol": 5326,
      "Ġspiri": 5327,
      "erre": 5328,
      "andi": 5329,
      "ĠaltresÙī": 5330,
      "iu": 5331,
      "Ġdecide": 5332,
      "ĠBel": 5333,
      "ĠBal": 5334,
      "Ġspecifico": 5335,
      "ttamento": 5336,
      "arma": 5337,
      "bin": 5338,
      "Ġdimensione": 5339,
      "Ġ2008": 5340,
      "ĠAt": 5341,
      "Ġsospen": 5342,
      "rona": 5343,
      "viste": 5344,
      "Ġospe": 5345,
      "inato": 5346,
      "Ġsuddi": 5347,
      "Ġinnova": 5348,
      "sk": 5349,
      "Ġ2007": 5350,
      "Ġfavorevole": 5351,
      "Ġpiane": 5352,
      "zionato": 5353,
      "Ġfia": 5354,
      "Ġcategorie": 5355,
      "Ġpoteri": 5356,
      "Ġcirco": 5357,
      "Ġprovenienti": 5358,
      "ĠAlc": 5359,
      "Ġmanu": 5360,
      "ĠMessaggio": 5361,
      "Ġaperta": 5362,
      "impe": 5363,
      "Ġcoscienza": 5364,
      "Ġcongi": 5365,
      "Ġinterro": 5366,
      "AA": 5367,
      "Ġmoni": 5368,
      "Ġpermanente": 5369,
      "Ġ2011": 5370,
      "Ġverde": 5371,
      "Ġdubbio": 5372,
      "Ġsussi": 5373,
      "Ġchiamata": 5374,
      "95": 5375,
      "ux": 5376,
      "Ġfarsi": 5377,
      "ĠFerra": 5378,
      "Ġgene": 5379,
      "Ġsedi": 5380,
      "Ġpenso": 5381,
      "collo": 5382,
      "Ġogn": 5383,
      "Ġtraffico": 5384,
      "Ġaspetto": 5385,
      "how": 5386,
      "Ġnormale": 5387,
      "Ġfisica": 5388,
      "77": 5389,
      "Ġ2012": 5390,
      "Ġdoveva": 5391,
      "ĠFranco": 5392,
      "Ġregista": 5393,
      "esercito": 5394,
      "Ġfonti": 5395,
      "Ġgradua": 5396,
      "Ġdelibera": 5397,
      "ttuale": 5398,
      "Ġcandidati": 5399,
      "ĠUN": 5400,
      "grafi": 5401,
      "osizione": 5402,
      "Ġlinguaggio": 5403,
      "Ġgare": 5404,
      "imento": 5405,
      "fare": 5406,
      "Ġcoppia": 5407,
      "rmi": 5408,
      "Ġcorrente": 5409,
      "Ġnecessari": 5410,
      "ĠXI": 5411,
      "Ġvenga": 5412,
      "Ġtrasferimento": 5413,
      "riere": 5414,
      "ĠSpagna": 5415,
      "ĠServizio": 5416,
      "monte": 5417,
      "Ġvicenda": 5418,
      "dor": 5419,
      "TRA": 5420,
      "ĠBene": 5421,
      "Ġcinemato": 5422,
      "ologico": 5423,
      "Ġfiducia": 5424,
      "TTO": 5425,
      "Ġperche": 5426,
      "ricoltura": 5427,
      "Ġmangia": 5428,
      "Ġfesta": 5429,
      "Ġscelto": 5430,
      "ĠScuola": 5431,
      "ĠRegno": 5432,
      "offerta": 5433,
      "Ġfasci": 5434,
      "rci": 5435,
      "BB": 5436,
      "Ġpopolare": 5437,
      "osci": 5438,
      "Ġdollari": 5439,
      "Ġattre": 5440,
      "metri": 5441,
      "Ġposizioni": 5442,
      "onamento": 5443,
      "Ġtorneo": 5444,
      "Ġmobili": 5445,
      "Ġara": 5446,
      "Ġricerche": 5447,
      "Ġcontraddi": 5448,
      "Ġsuccessiva": 5449,
      "Ġtratti": 5450,
      "Ġaiuta": 5451,
      "VE": 5452,
      "utazione": 5453,
      "Ġalb": 5454,
      "Ġcompiti": 5455,
      "Ġaggi": 5456,
      "grafo": 5457,
      "INI": 5458,
      "ĠPRESID": 5459,
      "Ġritar": 5460,
      "Ġdedicata": 5461,
      "zzur": 5462,
      "Ġinterven": 5463,
      "Ġimmobili": 5464,
      "Ġnuovamente": 5465,
      "Ġpremi": 5466,
      "ciamo": 5467,
      "Ġsegn": 5468,
      "ĠTren": 5469,
      "ting": 5470,
      "Ġcostituzione": 5471,
      "ennio": 5472,
      "Ġlontano": 5473,
      "Ġ#": 5474,
      "ĠEle": 5475,
      "Ġvorrei": 5476,
      "Ġstipu": 5477,
      "ĠRegioni": 5478,
      "Ġrisolu": 5479,
      "Ġambito": 5480,
      "Ġpad": 5481,
      "Ġindicazioni": 5482,
      "Ġsoff": 5483,
      "zano": 5484,
      "Ġmomenti": 5485,
      "Tra": 5486,
      "Ġmie": 5487,
      "fil": 5488,
      "estate": 5489,
      "ĠXV": 5490,
      "ennale": 5491,
      "Ġperdere": 5492,
      "ĠSolo": 5493,
      "Ġ02": 5494,
      "vando": 5495,
      "vendo": 5496,
      "Ġprecisa": 5497,
      "Ġcosta": 5498,
      "Ġistituti": 5499,
      "Ġ32": 5500,
      "ction": 5501,
      "94": 5502,
      "Ġcontiene": 5503,
      "Ġvivo": 5504,
      "Ġcertamente": 5505,
      "Ġqualora": 5506,
      "Ġlasciato": 5507,
      "Ġattorno": 5508,
      "ZIONI": 5509,
      "Ġprose": 5510,
      "Ġciclo": 5511,
      "ĠLega": 5512,
      "dra": 5513,
      "Ġgiochi": 5514,
      "Ġenergia": 5515,
      "Ġveniva": 5516,
      "ffe": 5517,
      "ĠCoppa": 5518,
      "Ġtempera": 5519,
      "76": 5520,
      "Ġciascuno": 5521,
      "Ġultime": 5522,
      "ĠNor": 5523,
      "Ġ2009": 5524,
      "Ġmiglior": 5525,
      "ĠZa": 5526,
      "Ġraggiunto": 5527,
      "Ġoli": 5528,
      "ĠMaggio": 5529,
      "Ġ70": 5530,
      "Ġfunzionamento": 5531,
      "Ġpilo": 5532,
      "Ġvesti": 5533,
      "bus": 5534,
      "Ġsvolge": 5535,
      "Ġsegue": 5536,
      "Ġpartenza": 5537,
      "Ġcm": 5538,
      "Ġimpossi": 5539,
      "Ġsoluzioni": 5540,
      "\":": 5541,
      "Ġpotenza": 5542,
      "usura": 5543,
      "damente": 5544,
      "Ġdott": 5545,
      "Ġschia": 5546,
      "Ġartisti": 5547,
      "Ġdimin": 5548,
      "dova": 5549,
      "bia": 5550,
      "Ġbello": 5551,
      "Ġsigno": 5552,
      "dette": 5553,
      "Ġsostenere": 5554,
      "Ġperiodi": 5555,
      "ATO": 5556,
      "ĠMal": 5557,
      "opp": 5558,
      "Ġciascun": 5559,
      "ĠUniversitÃł": 5560,
      "Ġinfra": 5561,
      "VO": 5562,
      "Ġmuni": 5563,
      "92": 5564,
      "ĠCampi": 5565,
      "Ġdecen": 5566,
      "Ġelettorale": 5567,
      "Ġavrebbero": 5568,
      "Ġgas": 5569,
      "Ġfilosofia": 5570,
      "Ġmantenere": 5571,
      "index": 5572,
      "nel": 5573,
      "ĠEx": 5574,
      "Ġrispondere": 5575,
      "Ġsicuro": 5576,
      "Ġqualunque": 5577,
      "vor": 5578,
      "Ġteoria": 5579,
      "Ġorganizzazione": 5580,
      "Ġavesse": 5581,
      "ĠSerie": 5582,
      "ĠStudi": 5583,
      "Ġferrovia": 5584,
      "ĠLuca": 5585,
      "Ġarea": 5586,
      "ĠBol": 5587,
      "Ġgeo": 5588,
      "fera": 5589,
      "Ġpromuovere": 5590,
      "usc": 5591,
      "Ġcomprende": 5592,
      "ĠlocalitÃł": 5593,
      "Ġvogli": 5594,
      "Ġ________________": 5595,
      "lita": 5596,
      "Ġstatunitense": 5597,
      "Ġcreato": 5598,
      "toriale": 5599,
      "\").": 5600,
      "Ġstare": 5601,
      "ERE": 5602,
      "Ġconsapevole": 5603,
      "dute": 5604,
      "mori": 5605,
      "emendamento": 5606,
      "mber": 5607,
      "Ġpomeri": 5608,
      "Ġimprendi": 5609,
      "Ġener": 5610,
      "Ġesperti": 5611,
      "Ġsposta": 5612,
      "ĠNON": 5613,
      "Ġconcessione": 5614,
      "Ġgenera": 5615,
      "Ġcoer": 5616,
      "Ġ2013": 5617,
      "Ġperso": 5618,
      "Ne": 5619,
      "Ġversa": 5620,
      "uma": 5621,
      "pati": 5622,
      "erebbe": 5623,
      "ĠMor": 5624,
      "Ġprevenzione": 5625,
      "ĠQual": 5626,
      "Ġindicato": 5627,
      "Ġdefinire": 5628,
      "Ġinva": 5629,
      "Ġtitolare": 5630,
      "Âłk": 5631,
      "ĠMod": 5632,
      "Ġconosce": 5633,
      "Ġusato": 5634,
      "Ġguada": 5635,
      "interesse": 5636,
      "inqu": 5637,
      "vanta": 5638,
      "Ġamericano": 5639,
      "Ġposse": 5640,
      "unedÙī": 5641,
      "Ġturno": 5642,
      "Ġefficace": 5643,
      "Ġindustriale": 5644,
      "Ġassai": 5645,
      "Ġpreventi": 5646,
      "equi": 5647,
      "cs": 5648,
      "Ġproi": 5649,
      "Ġambiente": 5650,
      "vizz": 5651,
      "Ġsape": 5652,
      "Ġvittime": 5653,
      "richi": 5654,
      "Ġaffa": 5655,
      "ĠTele": 5656,
      "ENTI": 5657,
      "shi": 5658,
      "Ġsalvo": 5659,
      "abb": 5660,
      "fficienza": 5661,
      "ĠCamp": 5662,
      "Ġpart": 5663,
      "Ġbatter": 5664,
      "Ġdichiara": 5665,
      "ssemblea": 5666,
      "Ġricordare": 5667,
      "Ġbrano": 5668,
      "Ġamericani": 5669,
      "ARI": 5670,
      "ugia": 5671,
      "82": 5672,
      "Ġchiave": 5673,
      "ĠHar": 5674,
      "vimento": 5675,
      "inten": 5676,
      "ingresso": 5677,
      "Ġamministrativo": 5678,
      "Ġtrasfer": 5679,
      "Ġpartecipato": 5680,
      "Ġappre": 5681,
      "ĠCI": 5682,
      "Ġcapace": 5683,
      "ĠGar": 5684,
      "Ġsvolgere": 5685,
      "aff": 5686,
      "Ġcambiare": 5687,
      "Ġfinanziamento": 5688,
      "Ġ@": 5689,
      "ĠSicilia": 5690,
      "ĠCHE": 5691,
      "Ġinser": 5692,
      "sio": 5693,
      "ĠfinalitÃł": 5694,
      "Ġmarito": 5695,
      "Ġpunte": 5696,
      "Ġmira": 5697,
      "Ġtrenta": 5698,
      "Ġdecre": 5699,
      "ologica": 5700,
      "Ġretro": 5701,
      "Ġsosteni": 5702,
      "Ġtesi": 5703,
      "Ġsperanza": 5704,
      "ciare": 5705,
      "Ġeconomici": 5706,
      "gin": 5707,
      "mine": 5708,
      "Ġserve": 5709,
      "Ġtest": 5710,
      "ĠFili": 5711,
      "ĠGenerale": 5712,
      "Ġscienza": 5713,
      "Ġinqu": 5714,
      "essero": 5715,
      "getto": 5716,
      "glianza": 5717,
      "Ġsegretario": 5718,
      "mbro": 5719,
      "ĠSO": 5720,
      "Ġclima": 5721,
      "ĠOn": 5722,
      "Ġgiusta": 5723,
      "Ġaccordi": 5724,
      "Ġpresi": 5725,
      "ĠEuropea": 5726,
      "rus": 5727,
      "inca": 5728,
      "ward": 5729,
      "Ġnotevole": 5730,
      "Ġrispettivamente": 5731,
      "rendo": 5732,
      "Ġigno": 5733,
      "Ġeconomiche": 5734,
      "Ġneo": 5735,
      "erico": 5736,
      "Ġtecnologia": 5737,
      "ĠRegistra": 5738,
      "Ġ2014": 5739,
      "ĠForum": 5740,
      "ĠGazzetta": 5741,
      "Ġmera": 5742,
      "ĠEs": 5743,
      "Ġviss": 5744,
      "Ġamp": 5745,
      "Ġmona": 5746,
      "Ġcambio": 5747,
      "Ġparro": 5748,
      "diali": 5749,
      "ĠVilla": 5750,
      "ĠWeb": 5751,
      "ĠToscana": 5752,
      "ometri": 5753,
      "Ġmandato": 5754,
      "Ġcontinui": 5755,
      "Ġripet": 5756,
      "Ġdiparti": 5757,
      "zionalitÃł": 5758,
      "Ufficio": 5759,
      "grafiche": 5760,
      "ĠOltre": 5761,
      "Ġrosso": 5762,
      "Ġespresso": 5763,
      "Ġaumento": 5764,
      "Ġciascuna": 5765,
      "Ġstimo": 5766,
      "Ġdovrebbero": 5767,
      "Ġinteressante": 5768,
      "Ġavevo": 5769,
      "Ġnominato": 5770,
      "ys": 5771,
      "Ġmille": 5772,
      "Ġvecchia": 5773,
      "Ġrivela": 5774,
      "Ġprossimi": 5775,
      "Ġmorto": 5776,
      "Ġcamp": 5777,
      "tani": 5778,
      "Ġmorale": 5779,
      "orld": 5780,
      "Ġdidattica": 5781,
      "Ġdirigente": 5782,
      "inare": 5783,
      "Ġ90": 5784,
      "Ġdirigenti": 5785,
      "rini": 5786,
      "Ġraffor": 5787,
      "Ġperaltro": 5788,
      "Ġdomani": 5789,
      "ĠRI": 5790,
      "ĠnovitÃł": 5791,
      "Ġama": 5792,
      "Ġ).": 5793,
      "TR": 5794,
      "Ġrep": 5795,
      "ĠopportunitÃł": 5796,
      "grati": 5797,
      "Ġfavorire": 5798,
      "scon": 5799,
      "Ġverranno": 5800,
      "Ġsel": 5801,
      "Ġvotazione": 5802,
      "corso": 5803,
      "Ġiscritti": 5804,
      "âĢĵ": 5805,
      "Ġaffin": 5806,
      "lesi": 5807,
      "ormi": 5808,
      "Ġpag": 5809,
      "Ġaiuto": 5810,
      "Ġ08": 5811,
      "Ġsore": 5812,
      "stron": 5813,
      "Ġsentire": 5814,
      "Ġampia": 5815,
      "Ġmatrimonio": 5816,
      "ontan": 5817,
      "lterra": 5818,
      "Ġ2015": 5819,
      "ĠPRESIDENTE": 5820,
      "Ġinver": 5821,
      "Ġbasi": 5822,
      "Ġsenatore": 5823,
      "Ġlasciare": 5824,
      "ĠComunitÃł": 5825,
      "Gli": 5826,
      "ans": 5827,
      "Ġmone": 5828,
      "Ġterritoriale": 5829,
      "ĠData": 5830,
      "Ġanalo": 5831,
      "ĠAcc": 5832,
      "Ġambientali": 5833,
      "Ġperfetta": 5834,
      "ttempo": 5835,
      "Ġcompleta": 5836,
      "Ġdolore": 5837,
      "ordinamento": 5838,
      "ĠMc": 5839,
      "vedi": 5840,
      "âĤ¬âĢ": 5841,
      "impegno": 5842,
      "Ġstorica": 5843,
      "dum": 5844,
      "Ġprefer": 5845,
      "mbri": 5846,
      "Ġcorsa": 5847,
      "Ġdemo": 5848,
      "ĠCapi": 5849,
      "tudine": 5850,
      "Ġcooperazione": 5851,
      "ĠTel": 5852,
      "ĠBla": 5853,
      "cerca": 5854,
      "Ġdico": 5855,
      "ĠSanto": 5856,
      "Ġconfigu": 5857,
      "trin": 5858,
      "ĠPol": 5859,
      "tribu": 5860,
      "Ġfrattempo": 5861,
      "gnate": 5862,
      "Ġspo": 5863,
      "tivitÃł": 5864,
      "Ġeffettuare": 5865,
      "Ġallar": 5866,
      "Ġimmagina": 5867,
      "Ġreca": 5868,
      "Ġresp": 5869,
      "uol": 5870,
      "ood": 5871,
      "lui": 5872,
      "Ġsoggiorno": 5873,
      "Ġdefinito": 5874,
      "Ġperci": 5875,
      "Ġdocente": 5876,
      "Ġtruppe": 5877,
      "Ġringra": 5878,
      "Ġconsentire": 5879,
      "vamento": 5880,
      "Ġcostitui": 5881,
      "identi": 5882,
      "ĠMusi": 5883,
      "Ġvostro": 5884,
      "ab": 5885,
      "nowiki": 5886,
      "Ġemendamenti": 5887,
      "Ġstabilito": 5888,
      "Ġindipendente": 5889,
      "ĠGrande": 5890,
      "Ġrichiede": 5891,
      "ĠDA": 5892,
      "Ġ500": 5893,
      "Ġpie": 5894,
      "Ġiniziativa": 5895,
      "Ġrappresentante": 5896,
      "Ġriusc": 5897,
      "Ġopportuno": 5898,
      "53": 5899,
      "ducazione": 5900,
      "Ġpartiti": 5901,
      "Or": 5902,
      "ĠStefano": 5903,
      "Ġscor": 5904,
      "Ġcomplessivo": 5905,
      "Ġassicurare": 5906,
      "contra": 5907,
      "52": 5908,
      "ĠVin": 5909,
      "ĠCO": 5910,
      "Ġvino": 5911,
      "Ġneanche": 5912,
      "sura": 5913,
      "arco": 5914,
      "ĠConferenza": 5915,
      "Ġaccol": 5916,
      "Ġiniziato": 5917,
      "epi": 5918,
      "Ġpartite": 5919,
      "Ġrestitu": 5920,
      "Ġindicati": 5921,
      "ung": 5922,
      "''": 5923,
      "Ġchiari": 5924,
      "Ġaggiunto": 5925,
      "Ġaf": 5926,
      "ĠDue": 5927,
      "Ġimportanza": 5928,
      "Ġavete": 5929,
      "ĠOri": 5930,
      "uogo": 5931,
      "ĠConsi": 5932,
      "ĠUno": 5933,
      "vegno": 5934,
      "prio": 5935,
      "Ġ33": 5936,
      "Ġpronuncia": 5937,
      "autori": 5938,
      "Ġsufficiente": 5939,
      "ĠChia": 5940,
      "ĠForse": 5941,
      "Vi": 5942,
      "oresta": 5943,
      "ttorio": 5944,
      "Ġpone": 5945,
      "Ġclub": 5946,
      "ĠItaliana": 5947,
      "Ġcontinuare": 5948,
      "Ġmaterie": 5949,
      "Ġportata": 5950,
      "Ġtradizionale": 5951,
      "ticamente": 5952,
      "Ġpartecipanti": 5953,
      "Ġconsumatori": 5954,
      "Ġdoppio": 5955,
      "Ġletteratura": 5956,
      "Ġ38": 5957,
      "Âª": 5958,
      "Ġreligione": 5959,
      "51": 5960,
      "Ġprocedere": 5961,
      "Ġprivata": 5962,
      "ĠCara": 5963,
      "Ġparco": 5964,
      "ĠRegola": 5965,
      "ĠCala": 5966,
      "Ġrichiesto": 5967,
      "tena": 5968,
      "Ġdeterminazione": 5969,
      "Ġ07": 5970,
      "ĠUSA": 5971,
      "siva": 5972,
      "Ġindisp": 5973,
      "Ġ>>": 5974,
      "Ġquote": 5975,
      "Ġpapa": 5976,
      "ĠMentre": 5977,
      "Ha": 5978,
      "attuazione": 5979,
      "cord": 5980,
      "Ġesemp": 5981,
      "Ġsig": 5982,
      "imposta": 5983,
      "Ġbandi": 5984,
      "Ġ04": 5985,
      "Ġinvestimenti": 5986,
      "don": 5987,
      "Ġobiettivo": 5988,
      "stare": 5989,
      "Li": 5990,
      "Ġ37": 5991,
      "Ġindirizzo": 5992,
      "essioni": 5993,
      "librio": 5994,
      "Ġdover": 5995,
      "pria": 5996,
      "Ġesistono": 5997,
      "ghilterra": 5998,
      "SP": 5999,
      "Ġmovimenti": 6000,
      "Ġ1988": 6001,
      "Ġinsegnanti": 6002,
      "Ġcru": 6003,
      "erano": 6004,
      "Ġproposto": 6005,
      "Ġsimbo": 6006,
      "Ġ\"\"": 6007,
      "68": 6008,
      "Ġester": 6009,
      "ccessi": 6010,
      "eva": 6011,
      "Ġcampione": 6012,
      "ĠTeatro": 6013,
      "Ġcredito": 6014,
      "ĠAlessandro": 6015,
      "Ġdistretto": 6016,
      "Ġpalazzo": 6017,
      "Ġreddito": 6018,
      "Ġconosciuto": 6019,
      "Ġutilizza": 6020,
      "ĠRegionale": 6021,
      "ĠCittÃł": 6022,
      "Ġconseguenze": 6023,
      "dotte": 6024,
      "Ġprosegui": 6025,
      "Ġcarne": 6026,
      "Ġcapp": 6027,
      "atta": 6028,
      "pore": 6029,
      "Ġinfor": 6030,
      "ica": 6031,
      "uli": 6032,
      "Ġcitato": 6033,
      "Ġcolpo": 6034,
      "rli": 6035,
      "Ġappari": 6036,
      "Ġgiappone": 6037,
      "Ġsilenzio": 6038,
      "Ġtrattato": 6039,
      "Ġbiblioteca": 6040,
      "ĠNO": 6041,
      "Ġtransi": 6042,
      "ĠMos": 6043,
      "Ġracconta": 6044,
      "ĠParma": 6045,
      "Ġsacri": 6046,
      "comuni": 6047,
      "Ġscegliere": 6048,
      "Ġ!": 6049,
      "Ġrit": 6050,
      "Ġvogliono": 6051,
      "ĠMAR": 6052,
      "cani": 6053,
      "Ġchil": 6054,
      "ĠCes": 6055,
      "Ġriflessione": 6056,
      "dam": 6057,
      "Ġrecupera": 6058,
      "Ġintelle": 6059,
      "ĠPresidenza": 6060,
      "Ġ1989": 6061,
      "Ġpresentata": 6062,
      "Ġrilievo": 6063,
      "ccade": 6064,
      "ĠInfine": 6065,
      "ĠAmerica": 6066,
      "ĠTorna": 6067,
      "Ġconquis": 6068,
      "troduzione": 6069,
      "ĠYo": 6070,
      "issimo": 6071,
      "Ġinternet": 6072,
      "Ġsorri": 6073,
      "volmente": 6074,
      "Ġcompro": 6075,
      "Ġspecifici": 6076,
      "ĠPorto": 6077,
      "Ġorganizzato": 6078,
      "Ġdialogo": 6079,
      "ĠsolidarietÃł": 6080,
      "Ġalti": 6081,
      "cons": 6082,
      "Ġsostituito": 6083,
      "istitu": 6084,
      "Ġ80": 6085,
      "ctor": 6086,
      "arla": 6087,
      "lanza": 6088,
      "Ġang": 6089,
      "Ġpole": 6090,
      "inti": 6091,
      "Nella": 6092,
      "tch": 6093,
      "Ġesecu": 6094,
      "destra": 6095,
      "Ġvenire": 6096,
      "Ġguarda": 6097,
      "ficati": 6098,
      "Ġargomenti": 6099,
      "Ġrisposte": 6100,
      "Ġfonte": 6101,
      "Ġfaccio": 6102,
      "Ġcomposta": 6103,
      "ĠTrib": 6104,
      "Ġmessaggi": 6105,
      "lanti": 6106,
      "Ġbos": 6107,
      "Ġmigliaia": 6108,
      "Ġeuropee": 6109,
      "ĠUfficiale": 6110,
      "prile": 6111,
      "ĠPiano": 6112,
      "Ġulteriore": 6113,
      "Ġmeridi": 6114,
      "ĠLet": 6115,
      "Ġelemento": 6116,
      "Ġ300": 6117,
      "Ġdichiarazioni": 6118,
      "Ġespressa": 6119,
      "como": 6120,
      "Ġderiva": 6121,
      "Ġoccidentale": 6122,
      "ĠOggetto": 6123,
      "Ġinserito": 6124,
      "Ġdebba": 6125,
      "VER": 6126,
      "Ġlavoratore": 6127,
      "Ġintito": 6128,
      "Ġminaccia": 6129,
      "Ġsecoli": 6130,
      "Ġmate": 6131,
      "xi": 6132,
      "ony": 6133,
      "Ġsostanza": 6134,
      "Ġlogica": 6135,
      "Ġpuoi": 6136,
      "Ġmonito": 6137,
      "Ġpropor": 6138,
      "PA": 6139,
      "Ġfacilmente": 6140,
      "Ġsentito": 6141,
      "Ġprivile": 6142,
      "ĠDEI": 6143,
      "ĠAli": 6144,
      "ĠPoste": 6145,
      "Ġveloce": 6146,
      "ĠPie": 6147,
      "Ġinc": 6148,
      "ĠPalermo": 6149,
      "erop": 6150,
      "energia": 6151,
      "Ġmura": 6152,
      "Ġfle": 6153,
      "Ġtermina": 6154,
      "Ġtari": 6155,
      "Ġdura": 6156,
      "gomento": 6157,
      "ĠSE": 6158,
      "Ġtrasformazione": 6159,
      "Ġunica": 6160,
      "vedÙī": 6161,
      "Ġaccusa": 6162,
      "Ġaltrettan": 6163,
      "Ġvolto": 6164,
      "Ġaumenta": 6165,
      "inamento": 6166,
      "Ġvuol": 6167,
      "ĠPI": 6168,
      "ĠPO": 6169,
      "scin": 6170,
      "Ġpositivo": 6171,
      "Ġmigliorare": 6172,
      "istico": 6173,
      "Ġprovince": 6174,
      "Ġpreparazione": 6175,
      "Ġmedicina": 6176,
      "Ġfamiliari": 6177,
      "Ġfinanziario": 6178,
      "Ġdefinitiva": 6179,
      "ĠSotto": 6180,
      "Ġria": 6181,
      "Ġripa": 6182,
      "Ġpurtroppo": 6183,
      "Ġannuale": 6184,
      "78": 6185,
      "Ġristo": 6186,
      "Ġgiocare": 6187,
      "Ġemi": 6188,
      "Ġministero": 6189,
      "Ġselezione": 6190,
      "ĠRA": 6191,
      "Ġfiscale": 6192,
      "Ġfamiliare": 6193,
      "ĠCosa": 6194,
      "atte": 6195,
      "unni": 6196,
      "Ġconquista": 6197,
      "apertura": 6198,
      "lievi": 6199,
      "messe": 6200,
      "get": 6201,
      "ĠSuper": 6202,
      "ĠRE": 6203,
      "Ġcolleghi": 6204,
      "Ġintegrazione": 6205,
      "arta": 6206,
      "Ġriunione": 6207,
      "Ġfratelli": 6208,
      "Ġverificare": 6209,
      "Ġscala": 6210,
      "Ġsposa": 6211,
      "Ġsindacali": 6212,
      "Ġsorpre": 6213,
      "zioso": 6214,
      "endosi": 6215,
      "Ġcentina": 6216,
      "tus": 6217,
      "Ġecco": 6218,
      "Ġprossima": 6219,
      "dal": 6220,
      "ĠMassimo": 6221,
      "ĠFestival": 6222,
      "tele": 6223,
      "Ġgiocatori": 6224,
      "ĠClau": 6225,
      "riamente": 6226,
      "Ġbanche": 6227,
      "100": 6228,
      "ziamento": 6229,
      "gherita": 6230,
      "ĠConf": 6231,
      "1999": 6232,
      "Ġocca": 6233,
      "Ġconsoli": 6234,
      "Ġdispone": 6235,
      "Ġsoldati": 6236,
      "Ġsuperare": 6237,
      "degna": 6238,
      "Ġcanzoni": 6239,
      "Ġappo": 6240,
      "orge": 6241,
      "Ġoccup": 6242,
      "Ġdifferenti": 6243,
      "ĠPur": 6244,
      "Ġcattura": 6245,
      "Ġsve": 6246,
      "Âłkm": 6247,
      "Ġlegno": 6248,
      "ĠSocietÃł": 6249,
      "UO": 6250,
      "ĠEli": 6251,
      "Ġprincipalmente": 6252,
      "wi": 6253,
      "Ġgaranzia": 6254,
      "CIA": 6255,
      "Ġlink": 6256,
      "ĠMessaggi": 6257,
      "tz": 6258,
      "Ġdebu": 6259,
      "Ġdeputati": 6260,
      "Ġedifici": 6261,
      "ĠNoi": 6262,
      "ĠCina": 6263,
      "istruzione": 6264,
      "mbolo": 6265,
      "ĠJe": 6266,
      "De": 6267,
      "Ġ2016": 6268,
      "din": 6269,
      "oli": 6270,
      "Ġmanca": 6271,
      "Ġstorie": 6272,
      "ĠFI": 6273,
      "Ġriparti": 6274,
      "Ġuscire": 6275,
      "bole": 6276,
      "Ġvento": 6277,
      "Ġ34": 6278,
      "Ġmatura": 6279,
      "Ġindustriali": 6280,
      "ĠBanca": 6281,
      "Ġvolo": 6282,
      "ĠPA": 6283,
      "Ġutilizzando": 6284,
      "Ġchiusura": 6285,
      "Ġges": 6286,
      "Ġvantaggio": 6287,
      "Ġrinuncia": 6288,
      "resenta": 6289,
      "gliare": 6290,
      "Ġatt": 6291,
      "TRO": 6292,
      "Ġpaesa": 6293,
      "Ġpercorsi": 6294,
      "Ġponte": 6295,
      "ĠAnna": 6296,
      "ĠPas": 6297,
      "INA": 6298,
      "ĠAM": 6299,
      "DE": 6300,
      "vocato": 6301,
      "Ġbocca": 6302,
      "libero": 6303,
      "fr": 6304,
      "Una": 6305,
      "marsi": 6306,
      "Ġfaceva": 6307,
      "binieri": 6308,
      "ola": 6309,
      "Ġest": 6310,
      "Ġpassione": 6311,
      "Ġpasse": 6312,
      "xxxx": 6313,
      "Ġutilizzati": 6314,
      "Ġdisposto": 6315,
      "strutture": 6316,
      "ERI": 6317,
      "ĠNess": 6318,
      "Ġricche": 6319,
      "Ġirri": 6320,
      "Ġine": 6321,
      "ttuali": 6322,
      "cur": 6323,
      "Ġanda": 6324,
      "Ġcompreso": 6325,
      "Ġstorici": 6326,
      "vra": 6327,
      "quisizione": 6328,
      "ĠMinistri": 6329,
      "Ġconsiste": 6330,
      "Ġimb": 6331,
      "ĠParco": 6332,
      "dibile": 6333,
      "Ġripe": 6334,
      "Ġcastello": 6335,
      "ĠConte": 6336,
      "Ġstri": 6337,
      "Ġrimb": 6338,
      "Ġmul": 6339,
      "ĠSy": 6340,
      "Ġcas": 6341,
      "gegn": 6342,
      "Ġcoopera": 6343,
      "ence": 6344,
      "ĠLei": 6345,
      "Ġriguardanti": 6346,
      "Ġke": 6347,
      "enaro": 6348,
      "mette": 6349,
      "Ġconsumo": 6350,
      "Ġpomeriggio": 6351,
      "slazione": 6352,
      "Ġvuoi": 6353,
      "her": 6354,
      "Ġpunta": 6355,
      "Da": 6356,
      "Ġrischia": 6357,
      "ky": 6358,
      "ombardia": 6359,
      "ĠMuseo": 6360,
      "ĠInforma": 6361,
      "ĠPos": 6362,
      "tologia": 6363,
      "alli": 6364,
      "Ġcapitolo": 6365,
      "onde": 6366,
      "Ġpagare": 6367,
      "ormente": 6368,
      "ance": 6369,
      "ĠPapa": 6370,
      "Ġindispensa": 6371,
      "ĠScri": 6372,
      "ÃŃ": 6373,
      "Ġblu": 6374,
      "500": 6375,
      "Ġcontrolli": 6376,
      ".:": 6377,
      "ENZA": 6378,
      "ii": 6379,
      "Ġparlato": 6380,
      "Ġteso": 6381,
      "ggiata": 6382,
      "Ġanticipa": 6383,
      "Ġinde": 6384,
      "Ġspalle": 6385,
      "ĠNelle": 6386,
      "Ġesser": 6387,
      "ĠâĢ¦": 6388,
      "ue": 6389,
      "chino": 6390,
      "Ġ00": 6391,
      "veva": 6392,
      "Ġrisolvere": 6393,
      "Ġrecante": 6394,
      "Ġfigure": 6395,
      "ipotesi": 6396,
      "Ġricom": 6397,
      "Ġvoci": 6398,
      "âĢ¦âĢ¦âĢ¦âĢ¦": 6399,
      "Ġaltrimenti": 6400,
      "dando": 6401,
      "ĠUniversi": 6402,
      "my": 6403,
      "venza": 6404,
      "ICO": 6405,
      "ĠAutore": 6406,
      "93": 6407,
      "ĠGuar": 6408,
      "ĠMari": 6409,
      "Ġridurre": 6410,
      "84": 6411,
      "die": 6412,
      "Ġconoscenze": 6413,
      "ller": 6414,
      "Ġdoppia": 6415,
      "doc": 6416,
      "Ġprotagonisti": 6417,
      "ĠEnrico": 6418,
      "rur": 6419,
      "Ġy": 6420,
      "Ġprodurre": 6421,
      "Ġognuno": 6422,
      "Ġregno": 6423,
      "Ġcambi": 6424,
      "Ġcomposizione": 6425,
      "ĠFil": 6426,
      "ZZ": 6427,
      "ĠTec": 6428,
      "Ġintelli": 6429,
      "gil": 6430,
      "Ġira": 6431,
      "Ġrelativamente": 6432,
      "Ġcoltiva": 6433,
      "Ġscadenza": 6434,
      "ziano": 6435,
      "Ġvedo": 6436,
      "Ġmalattie": 6437,
      "ling": 6438,
      "endum": 6439,
      "anchi": 6440,
      "Ġgiocatore": 6441,
      "Ġmetodi": 6442,
      "Ġsogno": 6443,
      "ĠAngel": 6444,
      "Ġdetermin": 6445,
      "Ġvostra": 6446,
      "ĠPAR": 6447,
      "augu": 6448,
      "Ġpezzi": 6449,
      "ĠSinda": 6450,
      "Ġaffari": 6451,
      "ĠUsa": 6452,
      "Ġnascon": 6453,
      "Ġserata": 6454,
      "Ġcommissa": 6455,
      "berg": 6456,
      "talitÃł": 6457,
      "landa": 6458,
      "ĠNove": 6459,
      "PI": 6460,
      "Ġaccanto": 6461,
      "Ġdeposi": 6462,
      "Ġgiard": 6463,
      "Ġorganismi": 6464,
      "malmente": 6465,
      "Ġpan": 6466,
      "Ġindivid": 6467,
      "Ġfrutto": 6468,
      "Ġterrorismo": 6469,
      "Ġpubblicata": 6470,
      "Ġcompetenti": 6471,
      "Ġfatte": 6472,
      "ĠUl": 6473,
      "Ġamericana": 6474,
      "Ġcause": 6475,
      "Ġrafforza": 6476,
      "Ġprospettiva": 6477,
      "Ġaggiungere": 6478,
      "Ġcompati": 6479,
      "Ġneppure": 6480,
      "bilita": 6481,
      "Ã³": 6482,
      "Ġpersegui": 6483,
      "ĠRegistrato": 6484,
      "Ġbordo": 6485,
      "approvazione": 6486,
      "Ġprofessore": 6487,
      "Ġindu": 6488,
      "CHE": 6489,
      "Ġpresu": 6490,
      "ĠMI": 6491,
      "ttobre": 6492,
      "ĠDavid": 6493,
      "Ġger": 6494,
      "elenco": 6495,
      "grado": 6496,
      "entro": 6497,
      "Ġsostanze": 6498,
      "Ġossia": 6499,
      "Ġesprime": 6500,
      "Ġcommento": 6501,
      "Ġelettronica": 6502,
      "teriale": 6503,
      "Ġrecenti": 6504,
      "artico": 6505,
      "Ġesprimere": 6506,
      "Ġmetter": 6507,
      "Ġsottoscri": 6508,
      "Ġdocumenta": 6509,
      "integrazione": 6510,
      "Ġmoderna": 6511,
      "Ġpressione": 6512,
      "edizione": 6513,
      "Ġvescovo": 6514,
      "Ġ400": 6515,
      "Ġprogettazione": 6516,
      "ĠAb": 6517,
      "ĠFA": 6518,
      "Ġradica": 6519,
      "Ġviva": 6520,
      "Ġiniziale": 6521,
      "Ġviolazione": 6522,
      "ula": 6523,
      "Ġmedesima": 6524,
      "Ġvolontaria": 6525,
      "Dal": 6526,
      "Ġdecora": 6527,
      "Ġpercentuale": 6528,
      "Ġsconfitta": 6529,
      "Ġcambiamento": 6530,
      "ĠDirettore": 6531,
      "imm": 6532,
      "Ġfianco": 6533,
      "Ġidea": 6534,
      "Ġdecisioni": 6535,
      "Ġsemplici": 6536,
      "Ġcommenti": 6537,
      "ontana": 6538,
      "Ġcamera": 6539,
      "Ġvalutare": 6540,
      "Ġesistenti": 6541,
      "istituzione": 6542,
      "rino": 6543,
      "quali": 6544,
      "Ġperdita": 6545,
      "Ġministri": 6546,
      "Ġespon": 6547,
      "Ġvigente": 6548,
      "INO": 6549,
      "segretario": 6550,
      "ĠciÃ²": 6551,
      "Ġquartiere": 6552,
      "Ġfortemente": 6553,
      "Ġstatale": 6554,
      "Ġmessi": 6555,
      "ĠFri": 6556,
      "Ġindividuare": 6557,
      "Ġmanifestazioni": 6558,
      "cial": 6559,
      "Ġpianeta": 6560,
      "Ġpp": 6561,
      "cque": 6562,
      "Ġconsiderare": 6563,
      "ĠGiappone": 6564,
      "ĠNuova": 6565,
      "Ġbando": 6566,
      "Ġcondivi": 6567,
      "Ġepisodi": 6568,
      "Ġ2017": 6569,
      "liano": 6570,
      "Ġcantante": 6571,
      "Ġimposta": 6572,
      "Ġalter": 6573,
      "ĠValle": 6574,
      "Ġindividuale": 6575,
      "onardo": 6576,
      "Ġcercando": 6577,
      "Ġscambio": 6578,
      "Ġsfida": 6579,
      "Ġmeccani": 6580,
      "Ġdigni": 6581,
      "ĠComp": 6582,
      "Ġterritoriali": 6583,
      "Ġfum": 6584,
      "coledÙī": 6585,
      "Ġdeca": 6586,
      "Ġsembrano": 6587,
      "Ġlaboratorio": 6588,
      "dar": 6589,
      "Ġconferenza": 6590,
      "anora": 6591,
      "Ġdipendente": 6592,
      "---": 6593,
      "aiuto": 6594,
      "Ġscoperta": 6595,
      "Ġsemina": 6596,
      "teriormente": 6597,
      "Ġschema": 6598,
      "ĠQueste": 6599,
      "Ġassenza": 6600,
      "Ġstudente": 6601,
      "ille": 6602,
      "Ġappassi": 6603,
      "occupazione": 6604,
      "Ġfrancesi": 6605,
      "ĠPrin": 6606,
      "Ġmodificato": 6607,
      "Ġceleb": 6608,
      "tedÙī": 6609,
      "ney": 6610,
      "archivio": 6611,
      "Ġmedici": 6612,
      "Ġcusto": 6613,
      "Ġlunghezza": 6614,
      "ĠVisto": 6615,
      "65": 6616,
      "Ġdotto": 6617,
      "Ġparlamentare": 6618,
      "raele": 6619,
      "cultura": 6620,
      "Ġrespi": 6621,
      "ĠPiÃ¹": 6622,
      "ĠEsp": 6623,
      "Ġstelle": 6624,
      "ĠPiazza": 6625,
      "sen": 6626,
      "Ġrock": 6627,
      "Ġumi": 6628,
      "bli": 6629,
      "Ġritorna": 6630,
      "Ġnave": 6631,
      "Ġinfluenza": 6632,
      "ĠAbbiamo": 6633,
      "Ġtenuta": 6634,
      "rescia": 6635,
      "messi": 6636,
      "unci": 6637,
      "Ġracconto": 6638,
      "Ġrisoluzione": 6639,
      "ĠBush": 6640,
      "Ġcolpa": 6641,
      "andica": 6642,
      "tizia": 6643,
      "Ġrisponde": 6644,
      "ceo": 6645,
      "Ġchiese": 6646,
      "Ġoneri": 6647,
      "rti": 6648,
      "Ġabitu": 6649,
      "Ġampio": 6650,
      "onici": 6651,
      "Ġtraspar": 6652,
      "Ġpazienti": 6653,
      "UL": 6654,
      "ĠGol": 6655,
      "ĠLavoro": 6656,
      "ĠSC": 6657,
      "Ġcollegamento": 6658,
      "ĠAllora": 6659,
      "Ġridu": 6660,
      "inno": 6661,
      "ĠEnti": 6662,
      "udo": 6663,
      "ĠWa": 6664,
      "Ġancor": 6665,
      "ĠAlberto": 6666,
      "tretti": 6667,
      "Ġreci": 6668,
      "SE": 6669,
      "ĠaffinchÃ©": 6670,
      "ĠCD": 6671,
      "Ġdesiderio": 6672,
      "Ġderivanti": 6673,
      "Ġcompli": 6674,
      "Ġdivisione": 6675,
      "ĠDalla": 6676,
      "endario": 6677,
      "Ġber": 6678,
      "Ġcerte": 6679,
      "Ġperse": 6680,
      "Ġmetropoli": 6681,
      "Ġtiro": 6682,
      "we": 6683,
      "Ġindietro": 6684,
      "gri": 6685,
      "AutoritÃł": 6686,
      "81": 6687,
      "Ġguard": 6688,
      "Ġbrani": 6689,
      "Ġindicare": 6690,
      "Ġagevo": 6691,
      "Ġpreli": 6692,
      "Tu": 6693,
      "Ġfeste": 6694,
      "ttino": 6695,
      "importanza": 6696,
      "Ġpuni": 6697,
      "Ġnarra": 6698,
      "pag": 6699,
      "Ġpio": 6700,
      "ĠEgli": 6701,
      "Ġcompleto": 6702,
      "Ġchiuso": 6703,
      "Ġattuali": 6704,
      "67": 6705,
      "Ġesti": 6706,
      "andante": 6707,
      "Imp": 6708,
      "opposizione": 6709,
      "dows": 6710,
      "Ġfacili": 6711,
      "Ġcentrali": 6712,
      "Ġintervenire": 6713,
      "ĠMad": 6714,
      "Ġcapol": 6715,
      "Ġcondotta": 6716,
      "Ġcostituita": 6717,
      "%.": 6718,
      "orzio": 6719,
      "angelo": 6720,
      "Ġclienti": 6721,
      "Ġandata": 6722,
      "impiego": 6723,
      "ĠUnite": 6724,
      "Ġnaturalmente": 6725,
      "Ġdiso": 6726,
      "Ġpoesia": 6727,
      "Ġcostruito": 6728,
      "eventu": 6729,
      "sinistra": 6730,
      "Ġdicono": 6731,
      "posizioni": 6732,
      "Ġclini": 6733,
      "Ġport": 6734,
      "Ġfasi": 6735,
      "Ġconsenso": 6736,
      "giorno": 6737,
      "ĠDia": 6738,
      "Ġlegati": 6739,
      "uscita": 6740,
      "giudi": 6741,
      "ĠMis": 6742,
      "impianto": 6743,
      "ett": 6744,
      "Ġcombina": 6745,
      "opport": 6746,
      "Ġ--": 6747,
      "Ġapre": 6748,
      "adozione": 6749,
      "tania": 6750,
      "dom": 6751,
      "83": 6752,
      "Ġsensa": 6753,
      "Ġ03": 6754,
      "erire": 6755,
      "ĠTU": 6756,
      "Ġpref": 6757,
      "Ġrimasto": 6758,
      "schi": 6759,
      "Ġquegli": 6760,
      "landese": 6761,
      "ĠLombardia": 6762,
      "Ġrilascio": 6763,
      "Ġconsiderata": 6764,
      "Ġofferte": 6765,
      "Ġdenaro": 6766,
      "cito": 6767,
      "archite": 6768,
      "ĠDELL": 6769,
      "Ġchilometri": 6770,
      "sion": 6771,
      "Ġtelevisione": 6772,
      "stre": 6773,
      "Ġsguardo": 6774,
      "siste": 6775,
      "Ġlimita": 6776,
      "ĠpersonalitÃł": 6777,
      "ĠTitolo": 6778,
      "stina": 6779,
      "Ġprete": 6780,
      "Ġattivo": 6781,
      "Ġvincere": 6782,
      "Ġelen": 6783,
      "esecuzione": 6784,
      "ĠRussia": 6785,
      "Ġditta": 6786,
      "Su": 6787,
      "Gi": 6788,
      "ĠBos": 6789,
      "Ġdigitale": 6790,
      "Ġcucina": 6791,
      "Ġpaio": 6792,
      "giana": 6793,
      "ĠRisposta": 6794,
      "ordi": 6795,
      "Ġsolamente": 6796,
      "ĠCaro": 6797,
      "ĠWal": 6798,
      "Ġelettrica": 6799,
      "Pi": 6800,
      "Ġscompar": 6801,
      "Åĵ": 6802,
      "Ġlegislazione": 6803,
      "clo": 6804,
      "Ġoffrire": 6805,
      "ĠDate": 6806,
      "yn": 6807,
      "Ġcontrasto": 6808,
      "Ġglobale": 6809,
      "Ġcanale": 6810,
      "Ġsituata": 6811,
      "Ġdipartimento": 6812,
      "RAN": 6813,
      "ĠPremio": 6814,
      "oniche": 6815,
      "Ġvillaggio": 6816,
      "ĠlÃ¢": 6817,
      "Ġfinanziari": 6818,
      "Ġappartenenti": 6819,
      "Ġavviso": 6820,
      "anesi": 6821,
      "Ġimpossibile": 6822,
      "Ġ),": 6823,
      "gliata": 6824,
      "Ġsocc": 6825,
      "Ġcanti": 6826,
      "Ġcard": 6827,
      "Ġbus": 6828,
      "Ġgeneri": 6829,
      "91": 6830,
      "Ġresistenza": 6831,
      "Ġcomponente": 6832,
      "Ġistruzione": 6833,
      "Ġpelli": 6834,
      "Mo": 6835,
      "Ġprevedere": 6836,
      "Ġsingole": 6837,
      "Ġragi": 6838,
      "Ġtour": 6839,
      "ĠidentitÃł": 6840,
      "Ġcaro": 6841,
      "Ġtiene": 6842,
      "ĠFacoltÃł": 6843,
      "Ġrifor": 6844,
      "erri": 6845,
      "Ġeffettivamente": 6846,
      "ĠRegolamento": 6847,
      "Ġeventualmente": 6848,
      "verÃł": 6849,
      "cera": 6850,
      "Ġmiglioramento": 6851,
      "Ġcomunicazioni": 6852,
      "Ġacu": 6853,
      "Ġcapitali": 6854,
      "aspetto": 6855,
      "Ġnata": 6856,
      "wer": 6857,
      "MENTO": 6858,
      "talmente": 6859,
      "ĠSant": 6860,
      "ĠUr": 6861,
      "Ġ47": 6862,
      "rÃ²": 6863,
      "Ġdolce": 6864,
      "Ġvege": 6865,
      "autoritÃł": 6866,
      "tene": 6867,
      "utile": 6868,
      "Ġassumere": 6869,
      "origine": 6870,
      "Ġriconosciuto": 6871,
      "ĠMin": 6872,
      "OO": 6873,
      "rudenza": 6874,
      "Ġdando": 6875,
      "entrata": 6876,
      "Ġfondata": 6877,
      "ĠCerto": 6878,
      "Ġdeliberazione": 6879,
      "guardia": 6880,
      "Ġfattori": 6881,
      "acquisto": 6882,
      "Ġiner": 6883,
      "Ġscoperto": 6884,
      "ALI": 6885,
      "Ġmonu": 6886,
      "Ġaggre": 6887,
      "Ġdivi": 6888,
      "Ġspet": 6889,
      "Ġstrategia": 6890,
      "Ġpietra": 6891,
      "Ġfarmaci": 6892,
      "ens": 6893,
      "end": 6894,
      "Ġtuoi": 6895,
      "Ġuscita": 6896,
      "ĠTI": 6897,
      "Ġraccomanda": 6898,
      "Ġriuscito": 6899,
      "logico": 6900,
      "Ġdelega": 6901,
      "cerdo": 6902,
      "Ġucciso": 6903,
      "gos": 6904,
      "Ġpensione": 6905,
      "ĠAss": 6906,
      "essori": 6907,
      "Ġinizialmente": 6908,
      "ĠvenerdÙī": 6909,
      "Ġfinanziarie": 6910,
      "Ġdestinati": 6911,
      "ĠFondo": 6912,
      "ĠClub": 6913,
      "Ġdiscre": 6914,
      "glione": 6915,
      "trÃ²": 6916,
      "Ġconvi": 6917,
      "Ġindagini": 6918,
      "Ġfiori": 6919,
      "ĠSha": 6920,
      "Ġassun": 6921,
      "Ġlegato": 6922,
      "ÙĬ": 6923,
      "Ulivo": 6924,
      "versale": 6925,
      "Ġcostituiscono": 6926,
      "Ġcinqu": 6927,
      "ĠDirezione": 6928,
      "ĠLazio": 6929,
      "ĠpubblicitÃł": 6930,
      "assistenza": 6931,
      "âĤ¬âĢĮ": 6932,
      "ĠIraq": 6933,
      "ĠMichele": 6934,
      "Ġstanza": 6935,
      "Ġimprov": 6936,
      "var": 6937,
      "Ġaugu": 6938,
      "Ġdiventato": 6939,
      "Ġrappresentato": 6940,
      "Ġtradizionali": 6941,
      "lun": 6942,
      "universitÃł": 6943,
      "Ġcomprendere": 6944,
      "Ġmeda": 6945,
      "Ġpensato": 6946,
      "Ġcorto": 6947,
      "Ġsimbolo": 6948,
      "Ġsostiene": 6949,
      "Fi": 6950,
      "Ġresidenza": 6951,
      "''.": 6952,
      "Ġlarga": 6953,
      "Ġreferendum": 6954,
      "Ġsanitaria": 6955,
      "pt": 6956,
      "stizia": 6957,
      "Ġbassa": 6958,
      "ĠSardegna": 6959,
      "tratto": 6960,
      "Ġfronti": 6961,
      "gento": 6962,
      "itali": 6963,
      "Ġcompresi": 6964,
      "Ġciao": 6965,
      "Ġcrede": 6966,
      "ici": 6967,
      "ĠDO": 6968,
      "Ġgratu": 6969,
      "Ġemana": 6970,
      "Ġristruttura": 6971,
      "ĠLoren": 6972,
      "Ġstiamo": 6973,
      "Ġseria": 6974,
      "ĠSol": 6975,
      "Ġebre": 6976,
      "Ġrasse": 6977,
      "Ġgiuris": 6978,
      "Ġestremamente": 6979,
      "Ġripresa": 6980,
      "Ġrappresentanza": 6981,
      "tane": 6982,
      "bol": 6983,
      "ĠDes": 6984,
      "Ġ46": 6985,
      "Ġinaugu": 6986,
      "Ġconiu": 6987,
      "Ġappren": 6988,
      "Ġfamoso": 6989,
      "Ġandato": 6990,
      "ĠNegli": 6991,
      "Ġimmigrati": 6992,
      "Ġaccedere": 6993,
      "Ġattori": 6994,
      "ĠROM": 6995,
      "Ġalunni": 6996,
      "Ġ39": 6997,
      "ĠMarc": 6998,
      "Ġ1985": 6999,
      "Dis": 7000,
      "evento": 7001,
      "chiamo": 7002,
      "Ġguardare": 7003,
      "Ġpalla": 7004,
      "Ġpratiche": 7005,
      "ĠMauri": 7006,
      "Ġsviluppare": 7007,
      "Ġinsedia": 7008,
      "Ġtabella": 7009,
      "Ġsanitario": 7010,
      "Ġassisti": 7011,
      "edificio": 7012,
      "Ġscolastica": 7013,
      "essato": 7014,
      "fran": 7015,
      "Ġdimostrato": 7016,
      "ĠPosted": 7017,
      "ĠCana": 7018,
      "ĠChar": 7019,
      "Ġdivie": 7020,
      "Ġpianta": 7021,
      "ĠSto": 7022,
      "ĠAs": 7023,
      "ĠCultura": 7024,
      "ĠWillia": 7025,
      "Ġappunta": 7026,
      "ash": 7027,
      "fficienti": 7028,
      "Ġattiva": 7029,
      "ĠQuanto": 7030,
      "Ġfrequenza": 7031,
      "bel": 7032,
      "...)": 7033,
      "Ġonline": 7034,
      "ĠAm": 7035,
      "Ġdec": 7036,
      "Ġisola": 7037,
      "Ġautenti": 7038,
      "auton": 7039,
      "????": 7040,
      "elet": 7041,
      "Ġfres": 7042,
      "ĠSulla": 7043,
      "Ġquotidiano": 7044,
      "Ġeffettuata": 7045,
      "ciplina": 7046,
      "Ġporti": 7047,
      "Ġrivolta": 7048,
      "dennitÃł": 7049,
      "eld": 7050,
      "Ġmotori": 7051,
      "Ġ1986": 7052,
      "insegnamento": 7053,
      "Ġtrasporti": 7054,
      "ĠFla": 7055,
      "App": 7056,
      "ĠPra": 7057,
      "ĠScienze": 7058,
      "ĠPadova": 7059,
      "Ġonore": 7060,
      "Art": 7061,
      "ket": 7062,
      "Ġcancella": 7063,
      "Ġconcorrenza": 7064,
      "ĠSiamo": 7065,
      "Ġaggiunge": 7066,
      "oggi": 7067,
      "mora": 7068,
      "Ġcellule": 7069,
      "ĠIstitu": 7070,
      "Ġvoleva": 7071,
      "Ġvene": 7072,
      "Ġvogliamo": 7073,
      "ĠComunque": 7074,
      "Ġ150": 7075,
      "Ġeffettuato": 7076,
      "Ġmole": 7077,
      "Ġinserire": 7078,
      "ham": 7079,
      "Ġcircolare": 7080,
      "Ġtv": 7081,
      "arrivo": 7082,
      "Ġbatte": 7083,
      "Ġchiunque": 7084,
      "ĠPM": 7085,
      "So": 7086,
      "Ġassume": 7087,
      "Ġran": 7088,
      "Ġferma": 7089,
      "dori": 7090,
      "Ġconseguente": 7091,
      "Assemblea": 7092,
      "esigenza": 7093,
      "Ġosservazioni": 7094,
      "Ġlingue": 7095,
      "?\"": 7096,
      "ĠStoria": 7097,
      "Ġ2018": 7098,
      "ĠLan": 7099,
      "Ġprocura": 7100,
      "Ġdecise": 7101,
      "Ã¶": 7102,
      "Ġrega": 7103,
      "ME": 7104,
      "ĠHi": 7105,
      "Ġconservazione": 7106,
      "comune": 7107,
      "Ġporte": 7108,
      "Ġscrittore": 7109,
      "ccademia": 7110,
      "osamente": 7111,
      "Ġpotenziali": 7112,
      "Ġpronto": 7113,
      "Ġavversa": 7114,
      "istituto": 7115,
      "Ġgenerazione": 7116,
      "autorizzazione": 7117,
      "Ġesecuzione": 7118,
      "Ġregolare": 7119,
      "arese": 7120,
      "ĠEmilia": 7121,
      "Ġsottolinea": 7122,
      "Ġistituzionali": 7123,
      "Ġabili": 7124,
      "Ġmaestro": 7125,
      "ĠCorso": 7126,
      "utente": 7127,
      "</": 7128,
      "dina": 7129,
      "Ġsimpa": 7130,
      "opinione": 7131,
      "Ġprovvede": 7132,
      "Ġpopoli": 7133,
      "ĠMO": 7134,
      "Ġresa": 7135,
      "Ġlingu": 7136,
      "ington": 7137,
      "Ġforesta": 7138,
      "Ġcoraggio": 7139,
      "Ġutilizzo": 7140,
      "COR": 7141,
      "Ġdefinitivamente": 7142,
      "perto": 7143,
      "Ġstabilire": 7144,
      "Ġumane": 7145,
      "ĠCorpo": 7146,
      "stenti": 7147,
      "Ba": 7148,
      "ĠlunedÙī": 7149,
      "Ġpiante": 7150,
      "Ġpezzo": 7151,
      "Ġevento": 7152,
      "fin": 7153,
      "Ġesercizio": 7154,
      "Ġdistur": 7155,
      "Ġpsico": 7156,
      "mbiente": 7157,
      "Ġterzi": 7158,
      "Ġsemb": 7159,
      "Ġetc": 7160,
      "ĠSin": 7161,
      "Ġarche": 7162,
      "ĠVeneto": 7163,
      "ĠMicro": 7164,
      "Ġpoveri": 7165,
      "indiri": 7166,
      "grafie": 7167,
      "risti": 7168,
      "vidu": 7169,
      "interpre": 7170,
      "Ġsfu": 7171,
      "Ġtasso": 7172,
      "cus": 7173,
      "Ġevol": 7174,
      "Ho": 7175,
      "Ġcircolazione": 7176,
      "Ġcompresa": 7177,
      "Ġsopravvi": 7178,
      "derlo": 7179,
      "lismo": 7180,
      "ĠSalva": 7181,
      "gersi": 7182,
      "biti": 7183,
      "Ġcostretto": 7184,
      "ks": 7185,
      "rima": 7186,
      "Ġrecord": 7187,
      "Ġaccessi": 7188,
      "Ġaiutare": 7189,
      "Ġnucleo": 7190,
      "Ġscheda": 7191,
      "ĠProgramma": 7192,
      "62": 7193,
      "bor": 7194,
      "Ġrealizzata": 7195,
      "ĠmobilitÃł": 7196,
      "Ġattivita": 7197,
      "tensione": 7198,
      "ĠNonostante": 7199,
      "Ġrappresentano": 7200,
      "ciuto": 7201,
      "gando": 7202,
      "Ġreda": 7203,
      "Ġassoluta": 7204,
      "Ġader": 7205,
      "Ġpaga": 7206,
      "Ġinna": 7207,
      "PE": 7208,
      "ongono": 7209,
      "ĠAssocia": 7210,
      "Ġscrittura": 7211,
      "72": 7212,
      "Ġautonoma": 7213,
      "ĠMicha": 7214,
      "Ġmercati": 7215,
      "Ġsiete": 7216,
      "Ġvendi": 7217,
      "Co": 7218,
      "Sa": 7219,
      "ĠMargherita": 7220,
      "Ġanziani": 7221,
      "Ġluci": 7222,
      "Ġassunto": 7223,
      "Ġbenefi": 7224,
      "rdo": 7225,
      "Ġprosp": 7226,
      "zionalmente": 7227,
      "Ġidro": 7228,
      "rgi": 7229,
      "Ġaccogli": 7230,
      "effetto": 7231,
      "cone": 7232,
      "ricato": 7233,
      "state": 7234,
      "Ġparziale": 7235,
      "Ġcomportamenti": 7236,
      "clusione": 7237,
      "Ġdista": 7238,
      "isse": 7239,
      "Ġmaggiormente": 7240,
      "ult": 7241,
      "ĠIni": 7242,
      "Ġstella": 7243,
      "Ġcontinuo": 7244,
      "Ġ1987": 7245,
      "Ġcatte": 7246,
      "Ġdebole": 7247,
      "teranno": 7248,
      "Ġassoluto": 7249,
      "ppiamo": 7250,
      "Ġcarte": 7251,
      "tua": 7252,
      "sserva": 7253,
      "Ġarte": 7254,
      "ĠTour": 7255,
      "ĠBon": 7256,
      "ĠPla": 7257,
      "introduzione": 7258,
      "ĠPon": 7259,
      "ĠServizi": 7260,
      "Ġdestinato": 7261,
      "Ġromana": 7262,
      "Ġdin": 7263,
      "tagna": 7264,
      "Ġeccessi": 7265,
      "Ġsplen": 7266,
      "ĠPartito": 7267,
      "Po": 7268,
      "ttica": 7269,
      "Ġcarcere": 7270,
      "Ġregistrazione": 7271,
      "agi": 7272,
      "Ġmuta": 7273,
      "Ġscontro": 7274,
      "Ġgiornalista": 7275,
      "mozione": 7276,
      "Ġtedesca": 7277,
      "Ġrimase": 7278,
      "Ġaprire": 7279,
      "Ġentrambe": 7280,
      "Ġcorrispondente": 7281,
      "Ġdecidere": 7282,
      "ĠBur": 7283,
      "========": 7284,
      "ĠAltri": 7285,
      "anz": 7286,
      "Ġparall": 7287,
      "Ġromano": 7288,
      "Ġmusicali": 7289,
      "Ġavvenuto": 7290,
      "Ġconsentito": 7291,
      "Ġprivate": 7292,
      "Ġporre": 7293,
      "Ġmana": 7294,
      "desi": 7295,
      "Ġturismo": 7296,
      "iscrizione": 7297,
      "aaaa": 7298,
      "Ġpesante": 7299,
      "Ġerrori": 7300,
      "Ġpista": 7301,
      "Ġconfine": 7302,
      "Ġcontenute": 7303,
      "Ġorganizzata": 7304,
      "Ġpaci": 7305,
      "ĠfarÃł": 7306,
      "Ġresidenti": 7307,
      "Ġofferta": 7308,
      "ĠciviltÃł": 7309,
      "stazione": 7310,
      "Ġsintesi": 7311,
      "Ġdovuta": 7312,
      "UE": 7313,
      "Ġufficio": 7314,
      "zionata": 7315,
      "stante": 7316,
      "utica": 7317,
      "pposi": 7318,
      "CHI": 7319,
      "Ġriguardano": 7320,
      "Ġcomitato": 7321,
      "Ġcolp": 7322,
      "Ġisla": 7323,
      "Ġpraticamente": 7324,
      "argomento": 7325,
      "assa": 7326,
      "Ġcolonna": 7327,
      "Ġcattolica": 7328,
      "ĠFOR": 7329,
      "Ġapplicano": 7330,
      "Ġsacerdo": 7331,
      "Ġregistrato": 7332,
      "ĠTom": 7333,
      "Ġmeravi": 7334,
      "ETTO": 7335,
      "Ġindividuali": 7336,
      "ĠOs": 7337,
      "Ġultima": 7338,
      "Ġfai": 7339,
      "sica": 7340,
      "Ġnotare": 7341,
      "Ġmontagna": 7342,
      "soft": 7343,
      "ĠRicor": 7344,
      "Ġtrasfor": 7345,
      "rle": 7346,
      "male": 7347,
      "sy": 7348,
      "Ġagenti": 7349,
      "Ġvoler": 7350,
      "work": 7351,
      "Ġricevere": 7352,
      "Ġ1980": 7353,
      "Ġstraordinario": 7354,
      "ĠPara": 7355,
      "dore": 7356,
      "ĠVincen": 7357,
      "TALI": 7358,
      "Ġ....": 7359,
      "Ġsospensione": 7360,
      "roso": 7361,
      "Ġfenomeni": 7362,
      "Ġsfo": 7363,
      "ĠSezione": 7364,
      "Ġautonomia": 7365,
      "Ġvecchi": 7366,
      "ĠAlcuni": 7367,
      "Ġmacchine": 7368,
      "Ġcirc": 7369,
      "ĠRos": 7370,
      "las": 7371,
      "Ġambienti": 7372,
      "ĠNatura": 7373,
      "Sono": 7374,
      "risto": 7375,
      "Ġrileva": 7376,
      "Ġtelevisiva": 7377,
      "terali": 7378,
      "ĠKo": 7379,
      "Ġaffermato": 7380,
      "Ġgiuridica": 7381,
      "Ġpreca": 7382,
      "rmente": 7383,
      "stu": 7384,
      "Ġmodulo": 7385,
      "64": 7386,
      "Ġfelice": 7387,
      "vizzera": 7388,
      "alta": 7389,
      "Ġurbanis": 7390,
      "Ġricco": 7391,
      "GG": 7392,
      "Ġsara": 7393,
      "Ġquotidiana": 7394,
      "Ġarrivato": 7395,
      "71": 7396,
      "Pre": 7397,
      "Ġriven": 7398,
      "74": 7399,
      "Ġinterni": 7400,
      "Ġ48": 7401,
      "vito": 7402,
      "Ġvenivano": 7403,
      "ĠBasi": 7404,
      "Ġrevisione": 7405,
      "ttente": 7406,
      "ĠWorld": 7407,
      ".-": 7408,
      "Ġsorella": 7409,
      "Ġoperativo": 7410,
      "Ġprecedenza": 7411,
      "Ġpubblicazioni": 7412,
      "Ġruoli": 7413,
      "Ġinfrastrutture": 7414,
      "uire": 7415,
      "ĠLea": 7416,
      "geno": 7417,
      "ciato": 7418,
      "Ġricercatori": 7419,
      "rom": 7420,
      "dosso": 7421,
      "Ġospedali": 7422,
      "ssazione": 7423,
      "ĠâĤ¬": 7424,
      "Ġbigli": 7425,
      "Ġgestire": 7426,
      "speci": 7427,
      "Ġconfini": 7428,
      "Ġcittadinanza": 7429,
      "Ġfisico": 7430,
      "Ad": 7431,
      "ĠTribunale": 7432,
      "Ġinti": 7433,
      "Ġfri": 7434,
      "evoluzione": 7435,
      "1998": 7436,
      "ĠOrgani": 7437,
      "Ġbellezza": 7438,
      "itÃł": 7439,
      "Ġchiaramente": 7440,
      "indirizzo": 7441,
      "cciano": 7442,
      "Ġpiatta": 7443,
      "Ġfrui": 7444,
      "Ġvivono": 7445,
      "Ġpanora": 7446,
      "Ġmaschile": 7447,
      "ĠSette": 7448,
      "Ġsaper": 7449,
      "Ġdifferenze": 7450,
      "stero": 7451,
      "Ġavvicina": 7452,
      "Ġinsomma": 7453,
      "Ġpas": 7454,
      "Ġgiocato": 7455,
      "Ġindicate": 7456,
      "ĠREG": 7457,
      "mendo": 7458,
      "Ġutilizzata": 7459,
      "Ġesce": 7460,
      "eventuale": 7461,
      "Ġreato": 7462,
      "ĠVedi": 7463,
      "Ġza": 7464,
      "critto": 7465,
      "chestra": 7466,
      "stampa": 7467,
      "Ġorientale": 7468,
      "Ġsegnale": 7469,
      "ĠIsraele": 7470,
      "ĠJack": 7471,
      "Ġposte": 7472,
      "cipro": 7473,
      "ĠuniversitÃł": 7474,
      "zionamento": 7475,
      "ĠNEL": 7476,
      "Ġonda": 7477,
      "Ġistituzionale": 7478,
      "PS": 7479,
      "Ġcentinaia": 7480,
      "Ġdate": 7481,
      "Ġdovere": 7482,
      "Ġdanne": 7483,
      "Ġtenendo": 7484,
      "ars": 7485,
      "Ġpersino": 7486,
      "ologici": 7487,
      "Ġadatta": 7488,
      "Ġcredere": 7489,
      "Ġapertura": 7490,
      "79": 7491,
      "ĠDecreto": 7492,
      "belli": 7493,
      "ĠCali": 7494,
      "Ġpopolari": 7495,
      "dier": 7496,
      "grafici": 7497,
      "Ġpartner": 7498,
      "ĠLI": 7499,
      "eremo": 7500,
      "Ġinteramente": 7501,
      "Ġammi": 7502,
      "Ġpesce": 7503,
      "Ġritenuto": 7504,
      "fondo": 7505,
      "umero": 7506,
      "ĠCOMUN": 7507,
      "Ġincenti": 7508,
      "Ġlie": 7509,
      "timento": 7510,
      "derale": 7511,
      "nu": 7512,
      "ĠDra": 7513,
      "ONO": 7514,
      "Ġdici": 7515,
      "Ġcanto": 7516,
      "Ġtutt": 7517,
      "ĠHu": 7518,
      "Ġvince": 7519,
      "raeli": 7520,
      "ĠPorta": 7521,
      "ĠAlex": 7522,
      "rt": 7523,
      "prin": 7524,
      "Ġmanutenzione": 7525,
      "Ġpregiudi": 7526,
      "ĠMel": 7527,
      "Ġimporta": 7528,
      "ĠSTA": 7529,
      "Ġantichi": 7530,
      "Ġprestazione": 7531,
      "Ġric": 7532,
      "tio": 7533,
      "Ġflessi": 7534,
      "Ġriportato": 7535,
      "Du": 7536,
      "ccessivamente": 7537,
      "ĠvirtÃ¹": 7538,
      "73": 7539,
      "Ci": 7540,
      "Ġgiunta": 7541,
      "ĠStan": 7542,
      "Ġdecreti": 7543,
      "Ġtribunale": 7544,
      "insieme": 7545,
      "ĠConvenzione": 7546,
      "tipo": 7547,
      "Ġfuga": 7548,
      "chiesta": 7549,
      "Ġobblighi": 7550,
      "Ġriferisce": 7551,
      "mobili": 7552,
      "Ġnemico": 7553,
      "Ġproduce": 7554,
      "ĠNicola": 7555,
      "Ġpala": 7556,
      "Ġ&#": 7557,
      "zionare": 7558,
      "Ġgusto": 7559,
      "ZZA": 7560,
      "Ġalber": 7561,
      "Ġrecipro": 7562,
      "%,": 7563,
      "Ġparlamentari": 7564,
      "Ġerrore": 7565,
      "Ġaggiornamento": 7566,
      "Ġrimanere": 7567,
      "Ġtedeschi": 7568,
      "Ġquaran": 7569,
      "ziato": 7570,
      "autonomia": 7571,
      "Ġpriva": 7572,
      "Ass": 7573,
      "dino": 7574,
      "Ġtemperatura": 7575,
      "Ġcoinci": 7576,
      "ĠArchi": 7577,
      "Ġuniversitario": 7578,
      "esito": 7579,
      "ĠRosa": 7580,
      "Ġsegreto": 7581,
      "iness": 7582,
      "Ġyo": 7583,
      "Ġattacco": 7584,
      "Ġdominio": 7585,
      "Ġaccre": 7586,
      "Ġ1978": 7587,
      "Ġrim": 7588,
      "duci": 7589,
      "Ġvalle": 7590,
      "blo": 7591,
      "Ġprigioni": 7592,
      "Ġricostruzione": 7593,
      "Ġtranquil": 7594,
      "vino": 7595,
      "Ġpetro": 7596,
      "Ġcircon": 7597,
      "stono": 7598,
      "ĠParte": 7599,
      "ĠKe": 7600,
      "ĠCalabria": 7601,
      "Ġdevi": 7602,
      "Ġzu": 7603,
      "Ġchitar": 7604,
      "Ġcibo": 7605,
      "dr": 7606,
      "inea": 7607,
      "ĠQuest": 7608,
      "Ġ42": 7609,
      "rosa": 7610,
      "ith": 7611,
      "Ġdisabili": 7612,
      "vincia": 7613,
      "Ġvigilanza": 7614,
      "Ġcaduta": 7615,
      "69": 7616,
      "inserimento": 7617,
      "Ġesplici": 7618,
      "Ġredazione": 7619,
      "Ġannunciato": 7620,
      "minali": 7621,
      "Ġdicendo": 7622,
      "Ġconvenzione": 7623,
      "Ġghia": 7624,
      "educazione": 7625,
      "ĠIS": 7626,
      "ath": 7627,
      "colta": 7628,
      "Ġsente": 7629,
      "Ġsignor": 7630,
      "mosfera": 7631,
      "Ġgiornale": 7632,
      "Ġdiffusa": 7633,
      "Ġusc": 7634,
      "zionati": 7635,
      "Ġraffi": 7636,
      "Ġrigi": 7637,
      "ttra": 7638,
      "Ġferi": 7639,
      "Ġespressione": 7640,
      "Ġmusici": 7641,
      "Ġpul": 7642,
      "Ġpresentano": 7643,
      "ball": 7644,
      "Ġassegnato": 7645,
      "ombra": 7646,
      "ĠComunale": 7647,
      "Ġinteressato": 7648,
      "Ġgiornalisti": 7649,
      "ĠGri": 7650,
      "edendo": 7651,
      "Ġquadri": 7652,
      "ĠCAR": 7653,
      "tentri": 7654,
      "cella": 7655,
      "ĠDELLE": 7656,
      "Ġequipa": 7657,
      "rita": 7658,
      "Ġviaggi": 7659,
      "Ġdifferenzia": 7660,
      "Ġlasciando": 7661,
      "Ġcompetizione": 7662,
      "cha": 7663,
      "ĠSÙī": 7664,
      "gliano": 7665,
      "Ġvide": 7666,
      "Ġtracce": 7667,
      "Ġcarb": 7668,
      "ETTI": 7669,
      "Ġfinito": 7670,
      "Ġbuoni": 7671,
      "Ġargomento": 7672,
      "br": 7673,
      "ise": 7674,
      "ĠâĢĿ": 7675,
      "ĠJam": 7676,
      "Ġpresupp": 7677,
      "ĠInternazionale": 7678,
      "Ġdiscri": 7679,
      "ĠAra": 7680,
      "ĠGeorge": 7681,
      "infanzia": 7682,
      "llazione": 7683,
      "Ġmonte": 7684,
      "Ġriconoscere": 7685,
      "onne": 7686,
      "Ġsingola": 7687,
      "ĠPadre": 7688,
      "Ġadottare": 7689,
      "vente": 7690,
      "Ġperfe": 7691,
      "incarico": 7692,
      "Ġcora": 7693,
      "Ġricordato": 7694,
      "Ġaumentare": 7695,
      "ĠInsomma": 7696,
      "DS": 7697,
      "Ro": 7698,
      "Ġamministrative": 7699,
      "ettivo": 7700,
      "Ġcombattere": 7701,
      "due": 7702,
      "Ġfrase": 7703,
      "Ġaziendale": 7704,
      "Ġconvinto": 7705,
      "Ġparametri": 7706,
      "ĠCin": 7707,
      "Ġpressi": 7708,
      "Ġana": 7709,
      "ĠPaul": 7710,
      "antica": 7711,
      "Ġsettiman": 7712,
      "Ġpm": 7713,
      "Ġinteressanti": 7714,
      "ĠPatri": 7715,
      "Ġvicina": 7716,
      "tenze": 7717,
      "ĠHer": 7718,
      "Ġautorizzazione": 7719,
      "Ġstraordinaria": 7720,
      "cero": 7721,
      "estione": 7722,
      "opportunitÃł": 7723,
      "Ġscoprire": 7724,
      "Ġadottato": 7725,
      "Come": 7726,
      "Ġgenti": 7727,
      "Ġordini": 7728,
      "Ġsezioni": 7729,
      "Ġfinanziamenti": 7730,
      "Ġantica": 7731,
      "Ġstadio": 7732,
      "Ġraggiunge": 7733,
      "tiamo": 7734,
      "ĠVittorio": 7735,
      "Ġveicoli": 7736,
      "Ġprepara": 7737,
      "ĠOpera": 7738,
      "Ġconsapevolezza": 7739,
      "Ġscritti": 7740,
      "ĠFondazione": 7741,
      "Ġpunteggio": 7742,
      "Ġmarcia": 7743,
      "Inter": 7744,
      "ONALE": 7745,
      "zzar": 7746,
      "Ġsanzioni": 7747,
      "ĠFino": 7748,
      "ĠWindows": 7749,
      "resto": 7750,
      "Ġvigenti": 7751,
      "Ġsalve": 7752,
      "nata": 7753,
      "Ġdestinazione": 7754,
      "Ġcostrin": 7755,
      "ĠFar": 7756,
      "onate": 7757,
      "Ġfili": 7758,
      "Ġnom": 7759,
      "Ġbom": 7760,
      "istiche": 7761,
      "???": 7762,
      "Ġconvegno": 7763,
      "Ġpenali": 7764,
      "Ġsvolte": 7765,
      "Ġpermettere": 7766,
      "Ra": 7767,
      "lor": 7768,
      "reni": 7769,
      "onario": 7770,
      "Ġrealizzati": 7771,
      "ĠSempre": 7772,
      "Ġinsegna": 7773,
      "Ġcoi": 7774,
      "ĠMatte": 7775,
      "Ġgeneralmente": 7776,
      "ĠMichael": 7777,
      "Ġcessa": 7778,
      "Ġrivoluzione": 7779,
      "Ġritiro": 7780,
      "Ġaventi": 7781,
      "ĠSala": 7782,
      "ĠMondo": 7783,
      "Ġdiocesi": 7784,
      "Ġesattamente": 7785,
      "mercio": 7786,
      "Ġtalvolta": 7787,
      "Ġattraversa": 7788,
      "Ġcomo": 7789,
      "Ġinfer": 7790,
      "Ġ1984": 7791,
      "eroga": 7792,
      "Ġridi": 7793,
      "Ġivi": 7794,
      "importo": 7795,
      "Ġvolontari": 7796,
      "iti": 7797,
      "Ġantico": 7798,
      "ĠPRE": 7799,
      "zzini": 7800,
      "ĠSport": 7801,
      "Ġlegger": 7802,
      "mona": 7803,
      "ĠPhi": 7804,
      "................................": 7805,
      "Ġscienze": 7806,
      "Ġtelefono": 7807,
      "Ġmorire": 7808,
      "ject": 7809,
      "ccati": 7810,
      "Ġglobali": 7811,
      "Ġ1983": 7812,
      "!\"": 7813,
      "Ġgrosso": 7814,
      "Ġadegu": 7815,
      "Ġcalcolo": 7816,
      "Ġtendenza": 7817,
      "Ġscia": 7818,
      "nici": 7819,
      "esterno": 7820,
      "sis": 7821,
      "off": 7822,
      "ĠLU": 7823,
      "ĠHol": 7824,
      "Ġcra": 7825,
      "ĠOv": 7826,
      "emi": 7827,
      "Ġcaldo": 7828,
      "page": 7829,
      "vani": 7830,
      "Ġfunzionale": 7831,
      "Ġriass": 7832,
      "Ġpover": 7833,
      "ĠcontinuitÃł": 7834,
      "Ġsubordina": 7835,
      "Ġstabilisce": 7836,
      "Ġconsegna": 7837,
      "Ġcani": 7838,
      "Ġprofessione": 7839,
      "intesa": 7840,
      "bro": 7841,
      "ĠCOR": 7842,
      "Ġadempi": 7843,
      "Ġpresentati": 7844,
      "tichetta": 7845,
      "Ġ1982": 7846,
      "gitto": 7847,
      "Ġinsu": 7848,
      "Äģ": 7849,
      "lesc": 7850,
      "forte": 7851,
      "any": 7852,
      "ulta": 7853,
      "Ġinnanzi": 7854,
      "espressione": 7855,
      "Ġazzur": 7856,
      "Ġeccezione": 7857,
      "ĠGiochi": 7858,
      "ttrice": 7859,
      "Ġfinora": 7860,
      "ĠMarina": 7861,
      "Ġstrin": 7862,
      "Ġcomunali": 7863,
      "Ġ41": 7864,
      "nis": 7865,
      "Ġprevalentemente": 7866,
      "ĠPier": 7867,
      "Ġsinte": 7868,
      "Ġvicende": 7869,
      "ccata": 7870,
      "ĠNazioni": 7871,
      "Ġ1981": 7872,
      "allegato": 7873,
      "Ġapplicazioni": 7874,
      "Ġcammino": 7875,
      "Ġritardo": 7876,
      "ccidente": 7877,
      "Ġono": 7878,
      "Ġulteriormente": 7879,
      "gran": 7880,
      "61": 7881,
      "rdine": 7882,
      "abi": 7883,
      "Ġcombatti": 7884,
      "golare": 7885,
      "Ġsuolo": 7886,
      "vina": 7887,
      "hai": 7888,
      "BA": 7889,
      "Ġuscito": 7890,
      "Ġcontea": 7891,
      "ĠHanno": 7892,
      "fu": 7893,
      "Ġperson": 7894,
      "Ġregistro": 7895,
      "Ġottiene": 7896,
      "Ġsperimentazione": 7897,
      "Ġsanno": 7898,
      "affi": 7899,
      "Ġ75": 7900,
      "Ġfinestra": 7901,
      "Questa": 7902,
      "Ġoperare": 7903,
      "Ġchiara": 7904,
      "rgilio": 7905,
      "loso": 7906,
      "Ġqualita": 7907,
      "sante": 7908,
      "ĠPubblica": 7909,
      "ĠAnton": 7910,
      "Ġbuono": 7911,
      "Ġit": 7912,
      "Ġprofondo": 7913,
      "ls": 7914,
      "Ġpotente": 7915,
      "Ġavvenuta": 7916,
      "ĠSiste": 7917,
      "ĠSole": 7918,
      "Ġod": 7919,
      "Ġinstalla": 7920,
      "Ġproprietario": 7921,
      "Ġcomplessiva": 7922,
      "Ġvissuto": 7923,
      "Ġsento": 7924,
      "Ġvalorizzazione": 7925,
      "Ġstatali": 7926,
      "Ġdiffuso": 7927,
      "ĠRicerca": 7928,
      "Ġlago": 7929,
      "ĠTV": 7930,
      "Ġorigini": 7931,
      "metro": 7932,
      "Ġalternativa": 7933,
      "ĠdignitÃł": 7934,
      "Ġrealizza": 7935,
      "ĠRich": 7936,
      "ĠNatale": 7937,
      "ĠDemocra": 7938,
      "terraneo": 7939,
      "Ġstatuto": 7940,
      "Ġmuseo": 7941,
      "Ġosser": 7942,
      "artista": 7943,
      "dol": 7944,
      "Ġtavolo": 7945,
      "Ġpilota": 7946,
      "ot": 7947,
      "Ġricca": 7948,
      "cona": 7949,
      "63": 7950,
      "Ġfatica": 7951,
      "Ġimpresa": 7952,
      "Ġgiuridico": 7953,
      "Ġabita": 7954,
      "ĠAssi": 7955,
      "Ġgradi": 7956,
      "ĠMarche": 7957,
      "Ġaccettare": 7958,
      "ĠsanitÃł": 7959,
      "ĠPeter": 7960,
      "Ġclassico": 7961,
      "Ġdivieto": 7962,
      "ĠâĢĶ": 7963,
      "Ġgraduatoria": 7964,
      "ĠDom": 7965,
      "Ġinfini": 7966,
      "ĠArti": 7967,
      "isca": 7968,
      "Ġamma": 7969,
      "Ġsebbene": 7970,
      "Ġcorretta": 7971,
      "Ġstraniero": 7972,
      "ku": 7973,
      "Ġproblematiche": 7974,
      "TTA": 7975,
      "Ġessenziale": 7976,
      "Ġincen": 7977,
      "Ġfermo": 7978,
      "ĠLorenzo": 7979,
      "ĠClaudio": 7980,
      "Ġallegato": 7981,
      "conten": 7982,
      "Ġconclude": 7983,
      "Ġragazze": 7984,
      "Ġ44": 7985,
      "mino": 7986,
      "ĠProgetto": 7987,
      "Ġserver": 7988,
      "stino": 7989,
      "Ġrisal": 7990,
      "putato": 7991,
      "GE": 7992,
      "Ġhandica": 7993,
      "Ġindirizzi": 7994,
      "ĠTali": 7995,
      "gori": 7996,
      "ĠVarese": 7997,
      "ji": 7998,
      "Ġcong": 7999,
      "Ġbro": 8000,
      "Â«": 8001,
      "Ġvisuali": 8002,
      "Ġsplendi": 8003,
      "attacco": 8004,
      "Ġconcluso": 8005,
      "ĠPiemonte": 8006,
      "Ġgiapponese": 8007,
      "Ġcontenente": 8008,
      "Ġlatino": 8009,
      "Ġraffigu": 8010,
      "Ġlezioni": 8011,
      "Ġmonitoraggio": 8012,
      "Ġdiss": 8013,
      "Ġinso": 8014,
      "Ġenerge": 8015,
      "tic": 8016,
      "Ġsecondi": 8017,
      "indagine": 8018,
      "Ġaffatto": 8019,
      "Ġdona": 8020,
      "Ġpreghi": 8021,
      "Ġgall": 8022,
      "Ġtitolari": 8023,
      "Ġmorta": 8024,
      "Ġcavallo": 8025,
      "Ġdecisamente": 8026,
      "Ġmamma": 8027,
      "Ġproduttori": 8028,
      "ĠAS": 8029,
      "Ġadulti": 8030,
      "UM": 8031,
      "identitÃł": 8032,
      "ĠRapp": 8033,
      "logica": 8034,
      "Ġideale": 8035,
      "orrei": 8036,
      "ĠPost": 8037,
      "ĠRobert": 8038,
      "Ġpaziente": 8039,
      "Ġmancata": 8040,
      "ĠBari": 8041,
      "ĠBern": 8042,
      "anese": 8043,
      "Ġreazione": 8044,
      "ĠMedio": 8045,
      "Ġteam": 8046,
      "ÙĦ": 8047,
      "gamo": 8048,
      "Ġsai": 8049,
      "Ġcristiana": 8050,
      "Ġselva": 8051,
      "Ġrece": 8052,
      "Ġoccasioni": 8053,
      "elles": 8054,
      "Ġtematiche": 8055,
      "Ġprovviso": 8056,
      "ellini": 8057,
      "Ġsesso": 8058,
      "Ġcomunicare": 8059,
      "immi": 8060,
      "jsp": 8061,
      "Ġ55": 8062,
      "Ġcopie": 8063,
      "Ġaspi": 8064,
      "ĠCap": 8065,
      "Ġresti": 8066,
      "Ġbenefici": 8067,
      "Ġmeridionale": 8068,
      "ĠFilippo": 8069,
      "Ġfondato": 8070,
      "Ġcostu": 8071,
      "ĠAus": 8072,
      "Ġdipende": 8073,
      "Ġnutri": 8074,
      "Ġcaratterizzata": 8075,
      "Ġconsigliere": 8076,
      "Ġfabbrica": 8077,
      "Ġsottosegretario": 8078,
      "Ġdescrizione": 8079,
      "sprudenza": 8080,
      "Ġpresentate": 8081,
      "PR": 8082,
      "ĠSergio": 8083,
      "Ġcercato": 8084,
      "ruzione": 8085,
      "Ġcapoluogo": 8086,
      "Ġelevato": 8087,
      "Ġcolpito": 8088,
      "dge": 8089,
      "Ġcritiche": 8090,
      "Ġsensibili": 8091,
      "Ġirach": 8092,
      "Ġordinario": 8093,
      "Ġimprenditori": 8094,
      "Ġrive": 8095,
      "Ġscopre": 8096,
      "Ġcentra": 8097,
      "Ġmeccanismo": 8098,
      "EST": 8099,
      "ĠIndi": 8100,
      "Ġprincipe": 8101,
      "Ġdistingu": 8102,
      "ĠLocali": 8103,
      "Ġatleti": 8104,
      "Ġriscontra": 8105,
      "Ġdodici": 8106,
      "ĠMac": 8107,
      "Ġĉ": 8108,
      "Ġautomatica": 8109,
      "Ġindispensabile": 8110,
      "Ġsostituzione": 8111,
      "Ġmisteri": 8112,
      "ĠPisa": 8113,
      "Ġcontrollare": 8114,
      "ĠPC": 8115,
      "Ġmolta": 8116,
      "Ġdeterminare": 8117,
      "Ġcrediti": 8118,
      "All": 8119,
      "Ġbianca": 8120,
      "Ġenorme": 8121,
      ";&#": 8122,
      "ĠSA": 8123,
      "Ġperde": 8124,
      "Ġfinire": 8125,
      "blioteche": 8126,
      "Ġincor": 8127,
      "ĠprioritÃł": 8128,
      "Ġapprezza": 8129,
      "ellino": 8130,
      "ficazioni": 8131,
      "Ġversioni": 8132,
      "Ġverti": 8133,
      "Ġtriste": 8134,
      "Ġtotalmente": 8135,
      "Ġ43": 8136,
      "ĠAna": 8137,
      "Ġpopolazioni": 8138,
      "ĠContro": 8139,
      "ĠIntanto": 8140,
      "Ġconfermato": 8141,
      "Ġparrocchia": 8142,
      "uova": 8143,
      "Ġblog": 8144,
      "Ġlavorato": 8145,
      "ones": 8146,
      "ĠBruno": 8147,
      "Ġrichiedere": 8148,
      "Ġimpegni": 8149,
      "FOR": 8150,
      "lavoro": 8151,
      "Ġbattuto": 8152,
      "VOR": 8153,
      "Ġreligiosa": 8154,
      "ĠCesare": 8155,
      "Ġdestino": 8156,
      "Ġstretto": 8157,
      "Ġimpu": 8158,
      "Ġlum": 8159,
      "stia": 8160,
      "Ġdotato": 8161,
      "Ġdiale": 8162,
      "Ġcapitano": 8163,
      "Ġrappresentare": 8164,
      "ĠCli": 8165,
      "mann": 8166,
      "Ġattacchi": 8167,
      "Ġcomunicato": 8168,
      "Ġdomici": 8169,
      "Ġbron": 8170,
      "Ġriprese": 8171,
      "ppie": 8172,
      "Ġnera": 8173,
      "ĠEu": 8174,
      "Ġsviluppato": 8175,
      "Ġconsiderazioni": 8176,
      "Ġufficialmente": 8177,
      "ĠHen": 8178,
      "Ġpremia": 8179,
      "inesi": 8180,
      "ĠChampi": 8181,
      "ite": 8182,
      "ressione": 8183,
      "Ġquinto": 8184,
      "oggetto": 8185,
      "ĠNA": 8186,
      "Ġprocla": 8187,
      "Ġprovare": 8188,
      "ĠGU": 8189,
      "riamo": 8190,
      "uori": 8191,
      "eroporto": 8192,
      "specie": 8193,
      "Ġcapelli": 8194,
      "deranno": 8195,
      "Ġstili": 8196,
      "ĠFederico": 8197,
      "hop": 8198,
      "Ġdisoccupa": 8199,
      "Ġappello": 8200,
      "Ġspiegato": 8201,
      "Ġlicen": 8202,
      "Ġtende": 8203,
      "Ġlegata": 8204,
      "ĠAncora": 8205,
      "Ġbisogni": 8206,
      "Ġcostituire": 8207,
      "Roma": 8208,
      "vori": 8209,
      "Ġricostrui": 8210,
      "Ġrestando": 8211,
      "prima": 8212,
      "ĠUmb": 8213,
      "ssino": 8214,
      "ficando": 8215,
      "ĠCE": 8216,
      "Ġdimostrare": 8217,
      "Ġesterno": 8218,
      "Ġspagnolo": 8219,
      "Ġstradale": 8220,
      "Ġsostituire": 8221,
      "Ġfram": 8222,
      "Ġmusul": 8223,
      "ĠStar": 8224,
      "Ġsepol": 8225,
      "aumento": 8226,
      "Ġelettro": 8227,
      "Ġlatte": 8228,
      "assessore": 8229,
      "ĠSara": 8230,
      "Ġaltrettanto": 8231,
      "ĠMadonna": 8232,
      "Ġcomandante": 8233,
      "individu": 8234,
      "Ġtensione": 8235,
      "Ġinventa": 8236,
      "ĠForza": 8237,
      "Ġessenziali": 8238,
      "Ġfrazione": 8239,
      "ĠLeague": 8240,
      "Ġvedi": 8241,
      "Ġrecen": 8242,
      "Ġrilevante": 8243,
      "!!!!!!!!": 8244,
      "Ġbilan": 8245,
      "Ġdisegni": 8246,
      "ĠiniziÃ²": 8247,
      "Ġcoda": 8248,
      "gger": 8249,
      "mÃ²": 8250,
      "Ġosservare": 8251,
      "tatore": 8252,
      "cho": 8253,
      "Ġner": 8254,
      "Ġpresenze": 8255,
      "ĠBrasile": 8256,
      "cm": 8257,
      "FI": 8258,
      "Â°Â°Â°Â°": 8259,
      "ĠSenza": 8260,
      "jo": 8261,
      "ĠOre": 8262,
      "cusa": 8263,
      "Ġverbale": 8264,
      "stano": 8265,
      "ĠQuello": 8266,
      "ĠTrento": 8267,
      "unicazioni": 8268,
      "Ġminima": 8269,
      "dda": 8270,
      "Ġsomme": 8271,
      "Ġfuggi": 8272,
      "Ġrecentemente": 8273,
      "Ġlunghi": 8274,
      "Ġcambiamenti": 8275,
      "CN": 8276,
      "ĠIr": 8277,
      "article": 8278,
      "ĠMil": 8279,
      "rola": 8280,
      "GRA": 8281,
      "ĠconformitÃł": 8282,
      "Ġmaglia": 8283,
      "Ġauspi": 8284,
      "Ġriser": 8285,
      "etica": 8286,
      "Ġpotesse": 8287,
      "Ġconsiderati": 8288,
      "rete": 8289,
      "Ġscienzia": 8290,
      "Ġsostenuto": 8291,
      "cir": 8292,
      "Ġperfettamente": 8293,
      "Ġusu": 8294,
      "Ġbuone": 8295,
      "Ġbanda": 8296,
      "Ġeffettuate": 8297,
      "Ente": 8298,
      "Ġmodificare": 8299,
      "ĠAmministra": 8300,
      "Ġincer": 8301,
      "Ġpassati": 8302,
      "Ġimmagine": 8303,
      "ansione": 8304,
      "Ġcominci": 8305,
      "Ġavval": 8306,
      "Ġpotevano": 8307,
      "ĠGabri": 8308,
      "Ġdelegato": 8309,
      "mita": 8310,
      "way": 8311,
      "Ġcorretto": 8312,
      "estri": 8313,
      "Ġspecialmente": 8314,
      "Ġgioia": 8315,
      "Ġcondotto": 8316,
      "ĠAff": 8317,
      "core": 8318,
      "ĠvarietÃł": 8319,
      "Ġesempi": 8320,
      "Ġscusa": 8321,
      "Ġcittadina": 8322,
      "Ġgrafica": 8323,
      "Ġbasato": 8324,
      "Ġtroviamo": 8325,
      "Ġisole": 8326,
      "Ġsforzo": 8327,
      "Ġfornisce": 8328,
      "Ġ65": 8329,
      "Ġlegate": 8330,
      "ĠFederazione": 8331,
      "Ġappartenente": 8332,
      "Ġchirur": 8333,
      "Ġblocco": 8334,
      "Ġvuoto": 8335,
      "Ġebra": 8336,
      "Ġesterna": 8337,
      "Ġtif": 8338,
      "ĠTRA": 8339,
      "bil": 8340,
      "Ġsignora": 8341,
      "UTO": 8342,
      "Ġalimentare": 8343,
      "ĠKi": 8344,
      "ĠVerona": 8345,
      "Ġparche": 8346,
      "Ġcrescere": 8347,
      "umu": 8348,
      "arca": 8349,
      "ssico": 8350,
      "ziare": 8351,
      "Ġartigi": 8352,
      "ĠBiblioteca": 8353,
      "ĠDomeni": 8354,
      "reste": 8355,
      "conomi": 8356,
      "Ġdiscipline": 8357,
      "Ġentrate": 8358,
      "mula": 8359,
      "umanitÃł": 8360,
      "ĠAmministrazione": 8361,
      "Ġrazzi": 8362,
      "Ġgiudica": 8363,
      "Ġprofessionisti": 8364,
      "Ġintegrato": 8365,
      "sson": 8366,
      "ministra": 8367,
      "Ġlegali": 8368,
      "ĠJames": 8369,
      "Ġinvita": 8370,
      "Ġcertificazione": 8371,
      "ĠMedia": 8372,
      "Ġdiceva": 8373,
      "uth": 8374,
      "Ġceri": 8375,
      "ĠAc": 8376,
      "Ġcristiani": 8377,
      "oooo": 8378,
      "Ġinterpreta": 8379,
      "Ġclassica": 8380,
      "Ġsostanzialmente": 8381,
      "Ġgiudici": 8382,
      "ĠMare": 8383,
      "Ġgreco": 8384,
      "Ġsbar": 8385,
      "Ġprimavera": 8386,
      "ny": 8387,
      "Ġaria": 8388,
      "Ġcalendario": 8389,
      "Ġcentrosinistra": 8390,
      "Ġregia": 8391,
      "pet": 8392,
      "FA": 8393,
      "Ġprovinciali": 8394,
      "Ġriviste": 8395,
      "Ġliste": 8396,
      "Ġartistico": 8397,
      "Ġdiscutere": 8398,
      "Ġfax": 8399,
      "Ġinglesi": 8400,
      "load": 8401,
      "Ġdefinisce": 8402,
      "Ġimpegna": 8403,
      "Ġintero": 8404,
      "ĠProdi": 8405,
      "Ġgratui": 8406,
      "Ġespressi": 8407,
      "Ġproduttive": 8408,
      "arch": 8409,
      "ĠGiacomo": 8410,
      "tizie": 8411,
      "armi": 8412,
      "Ġimper": 8413,
      "ĠVerdi": 8414,
      "gale": 8415,
      "Ġfla": 8416,
      "uovo": 8417,
      "Ġsappiamo": 8418,
      "Ġepisodio": 8419,
      "QU": 8420,
      "ĠLiber": 8421,
      "Ġcorpi": 8422,
      "Ġcertificato": 8423,
      "Ġfila": 8424,
      "Ġfinisce": 8425,
      "gitti": 8426,
      "Nell": 8427,
      "Ġnecessariamente": 8428,
      "Ġriceve": 8429,
      "Ġcontemporaneamente": 8430,
      "polo": 8431,
      "Ġ2019": 8432,
      "ĠCredo": 8433,
      "gruppo": 8434,
      "Ġrisarci": 8435,
      "Ġebrei": 8436,
      "Ġvantaggi": 8437,
      "Ġmail": 8438,
      "Ġcaratterizzato": 8439,
      "minata": 8440,
      "Ġucc": 8441,
      "Ġder": 8442,
      "ĠRIS": 8443,
      "Ġpresid": 8444,
      "cel": 8445,
      "Ġvicini": 8446,
      "Ġarbi": 8447,
      "Ġattrezza": 8448,
      "ELLI": 8449,
      "Ġfavori": 8450,
      "Ġridotto": 8451,
      "Ġbassi": 8452,
      "anu": 8453,
      "port": 8454,
      "Ġiscritto": 8455,
      "Ġproporre": 8456,
      "adegua": 8457,
      "Ġsuono": 8458,
      "rena": 8459,
      "inioni": 8460,
      "artiene": 8461,
      "ĠBretagna": 8462,
      "ciata": 8463,
      "Ġquarta": 8464,
      "Ġculto": 8465,
      "Ġriempi": 8466,
      "ĠROMA": 8467,
      "Ġcinese": 8468,
      "mbascia": 8469,
      "Ġassociazione": 8470,
      "Ġsalvare": 8471,
      "Ġsotti": 8472,
      "Ġ59": 8473,
      "Ġrisc": 8474,
      "ĠÃ": 8475,
      "Ġrisultano": 8476,
      "Ġtesoro": 8477,
      "tire": 8478,
      "Ġradi": 8479,
      "sch": 8480,
      "Ġarrivo": 8481,
      "Ġuguale": 8482,
      "Ġcolloca": 8483,
      "Ġrosa": 8484,
      "teriori": 8485,
      "Ġsceneggia": 8486,
      "Ġdiretti": 8487,
      "Ġvini": 8488,
      "Ġfid": 8489,
      "Ġinevita": 8490,
      "Ġchiusa": 8491,
      "Ġmanifes": 8492,
      "ĠFia": 8493,
      "Ġlati": 8494,
      "right": 8495,
      "Ġsessanta": 8496,
      "Ġraccoglie": 8497,
      "vise": 8498,
      "ecc": 8499,
      "ning": 8500,
      "Ġdirettive": 8501,
      "sori": 8502,
      "ĠSei": 8503,
      "ĠSS": 8504,
      "Ġnegativo": 8505,
      "ring": 8506,
      "Na": 8507,
      "Ġcima": 8508,
      "ANA": 8509,
      "Ġgiallo": 8510,
      "ensore": 8511,
      "ĠCommissioni": 8512,
      "Ġconsultazione": 8513,
      "Ġconvertito": 8514,
      "TT": 8515,
      "ĠJean": 8516,
      "tanta": 8517,
      "ĠPrimo": 8518,
      "verno": 8519,
      "elezione": 8520,
      "Ġinteressate": 8521,
      "ĠEntra": 8522,
      "Ġschermo": 8523,
      "Ġfacciamo": 8524,
      "Ġflo": 8525,
      "Ġrivolto": 8526,
      "Ġrappresentazione": 8527,
      "busti": 8528,
      "ĠRIC": 8529,
      "ald": 8530,
      "Ġconcerti": 8531,
      "Ġindire": 8532,
      "ĠRomano": 8533,
      "Ġja": 8534,
      "Ġsatelli": 8535,
      "Ġfinanze": 8536,
      "Ġcane": 8537,
      "ĠVIS": 8538,
      "han": 8539,
      "assenza": 8540,
      "luenza": 8541,
      "informa": 8542,
      "Ġpromosso": 8543,
      "entamento": 8544,
      "Ġmuro": 8545,
      "tÃ©": 8546,
      "Ġsegni": 8547,
      "ĠMolti": 8548,
      "Ġsettentri": 8549,
      "Ġcollegio": 8550,
      "Ġpriori": 8551,
      "Ġdatore": 8552,
      "ĠVan": 8553,
      "Ġster": 8554,
      "altezza": 8555,
      "Ġamministrativi": 8556,
      "mestre": 8557,
      "Ġaffida": 8558,
      "ombo": 8559,
      "ĠBlu": 8560,
      "mismo": 8561,
      "ĠTutte": 8562,
      "Ġtestimonianza": 8563,
      "Ġtappe": 8564,
      "Ġrilevanza": 8565,
      "Ġpasto": 8566,
      "Ġcambiato": 8567,
      "ĠAI": 8568,
      "ĠFilm": 8569,
      "Ġ1977": 8570,
      "Ġvariazioni": 8571,
      "Ġguerre": 8572,
      "ĠGuerra": 8573,
      "Ġdisputa": 8574,
      "ttenti": 8575,
      "Ġorizz": 8576,
      "Ġcl": 8577,
      ".).": 8578,
      "ĠPolizia": 8579,
      "Ġnazi": 8580,
      "Ġconcessi": 8581,
      "zu": 8582,
      "ĠPiero": 8583,
      "Ġonde": 8584,
      "Ġstagioni": 8585,
      "Ġnemici": 8586,
      "Ġ1975": 8587,
      "Ġtrattati": 8588,
      "ĠCarta": 8589,
      "Ġfirmato": 8590,
      "ĠGiÃł": 8591,
      "Ġintanto": 8592,
      "dese": 8593,
      "py": 8594,
      "Ġbrevi": 8595,
      "Ġspirituale": 8596,
      "Ġconsta": 8597,
      "Ġcompiuto": 8598,
      "Ġprosegue": 8599,
      "Ġstudiare": 8600,
      "Ġsuperato": 8601,
      "smi": 8602,
      "ttanta": 8603,
      "CON": 8604,
      "Ġracconti": 8605,
      "ĠAssociazione": 8606,
      "alti": 8607,
      "Ġredditi": 8608,
      "Ġsottra": 8609,
      "ĠGianni": 8610,
      "Ġcaratteristica": 8611,
      "Ġsottoscritto": 8612,
      "omogene": 8613,
      "ĠRen": 8614,
      "ĠgiovedÙī": 8615,
      "Ġcompara": 8616,
      "Ġparlando": 8617,
      "sogna": 8618,
      "ĠAD": 8619,
      "Ġstupi": 8620,
      "Ġistituito": 8621,
      "Ġindividui": 8622,
      "Ġautomobili": 8623,
      "Ġcontatti": 8624,
      "ttando": 8625,
      "ĠPor": 8626,
      "venuto": 8627,
      "conto": 8628,
      "Ġrapidamente": 8629,
      "Ġcapaci": 8630,
      "Ġisraeli": 8631,
      "Ġeconomia": 8632,
      "ttualmente": 8633,
      "Ġcala": 8634,
      "Ġtanta": 8635,
      "Ġefficacia": 8636,
      "Ġprovato": 8637,
      "Ġpoeta": 8638,
      "ospe": 8639,
      "Ġchiedo": 8640,
      "Ġesterni": 8641,
      "Ġentu": 8642,
      "Ġpresidenza": 8643,
      "Ġ1979": 8644,
      "Ġnavigazione": 8645,
      "Ġ..": 8646,
      "Ġorganizzare": 8647,
      "......": 8648,
      "Ġcoinvolti": 8649,
      "Ġcoe": 8650,
      "Ġstrettamente": 8651,
      "ologiche": 8652,
      "Ġartifi": 8653,
      "Ġvengano": 8654,
      "gentina": 8655,
      "Ġcalo": 8656,
      "Ġpubblicati": 8657,
      "ĠPet": 8658,
      "Ġrigo": 8659,
      "initÃł": 8660,
      "ICI": 8661,
      "Ġcritico": 8662,
      "ĠDAL": 8663,
      "ashington": 8664,
      "Ġcarro": 8665,
      "Ġstrategie": 8666,
      "Ġdefiniti": 8667,
      "Ġscolastici": 8668,
      "Ġelettronico": 8669,
      "Ġartt": 8670,
      "Ġconcernente": 8671,
      "ggeri": 8672,
      "Ġsembrava": 8673,
      "Ġdir": 8674,
      "Ġreligioso": 8675,
      "Ġcoali": 8676,
      "Ġnegozi": 8677,
      "Ġsottolineato": 8678,
      "ĠModena": 8679,
      "ĠLO": 8680,
      "Ġstabiliti": 8681,
      "ĠNuovo": 8682,
      "set": 8683,
      "ĠFal": 8684,
      "gor": 8685,
      "ville": 8686,
      "INE": 8687,
      "Ġsentimenti": 8688,
      "ĠInternational": 8689,
      "ERO": 8690,
      "Ġavranno": 8691,
      "Ġdiffon": 8692,
      "Ġfur": 8693,
      "Ale": 8694,
      "Ġinterpretazione": 8695,
      "Ġsicili": 8696,
      "geni": 8697,
      "Ġ49": 8698,
      "Ġdifendere": 8699,
      "For": 8700,
      "Ġoriginali": 8701,
      "Ġdisciplinare": 8702,
      "Ġingresso": 8703,
      "Ġacquista": 8704,
      "ĠAugu": 8705,
      "ĠAngelo": 8706,
      "ĠMicrosoft": 8707,
      "ĠRossi": 8708,
      "Fu": 8709,
      "tea": 8710,
      "Africa": 8711,
      "eth": 8712,
      "Ġcomunitaria": 8713,
      "osserva": 8714,
      "terebbe": 8715,
      "mbur": 8716,
      "ĠVincenzo": 8717,
      "Ġformale": 8718,
      "Ġbraccio": 8719,
      "ĠNu": 8720,
      "Ġtagli": 8721,
      "Ġeccell": 8722,
      "HE": 8723,
      "Ġvul": 8724,
      "Ġsconosci": 8725,
      "Ġdefinita": 8726,
      "Ġsindacati": 8727,
      "Ġgiornate": 8728,
      "win": 8729,
      "Ġricchezza": 8730,
      "Ġutilizzate": 8731,
      "Ġdiede": 8732,
      "Ġapprovazione": 8733,
      "Agenzia": 8734,
      "Ġ53": 8735,
      "tarsi": 8736,
      "Äį": 8737,
      "agricoltura": 8738,
      "Ġsorpresa": 8739,
      "ĠProprio": 8740,
      "Ġarriv": 8741,
      "ĠSanti": 8742,
      "Ġvolontariato": 8743,
      "Ġgoverni": 8744,
      "ĠMaurizio": 8745,
      "Ġdecenni": 8746,
      "inante": 8747,
      "ĠChampions": 8748,
      "ZIO": 8749,
      "Ġspiegare": 8750,
      "ĠItaliano": 8751,
      "%)": 8752,
      "Ġmondiali": 8753,
      "Ġinviare": 8754,
      "Ġoro": 8755,
      "Ġspontan": 8756,
      "strada": 8757,
      "Ġcurio": 8758,
      "ĠLun": 8759,
      "file": 8760,
      "Ġ250": 8761,
      "ĠRela": 8762,
      "Ġ64": 8763,
      "Ġ51": 8764,
      "minati": 8765,
      "Ã§": 8766,
      "Ġdistruzione": 8767,
      "unt": 8768,
      "della": 8769,
      "ĠPala": 8770,
      "Ġingegn": 8771,
      "Ġmarchio": 8772,
      "ĠLos": 8773,
      "Ġidentifica": 8774,
      "Ġistituto": 8775,
      "Ġcomprese": 8776,
      "Ġprotocollo": 8777,
      "inario": 8778,
      "burgo": 8779,
      "MB": 8780,
      "ĠSindaco": 8781,
      "Ġsignificativo": 8782,
      "Ġinutile": 8783,
      "Ġincro": 8784,
      "Ġpresen": 8785,
      "Ġospiti": 8786,
      "Ġmancato": 8787,
      "Ġassor": 8788,
      "tum": 8789,
      "ĠDott": 8790,
      "teca": 8791,
      "orentina": 8792,
      "Ġconcreto": 8793,
      "Ġtipologia": 8794,
      "Ġtue": 8795,
      "elabo": 8796,
      "indicazione": 8797,
      "...]": 8798,
      "ĠSignor": 8799,
      "ARA": 8800,
      "Ġdeputato": 8801,
      "ĠUrb": 8802,
      "ĠPertanto": 8803,
      "sciu": 8804,
      "Ġcelebre": 8805,
      "ĠSarÃł": 8806,
      "Ġcitata": 8807,
      "::": 8808,
      "Ġparagrafo": 8809,
      "ĠDall": 8810,
      "Ġdanza": 8811,
      "Ġconsulenza": 8812,
      "Iraq": 8813,
      "ĠReggio": 8814,
      "espon": 8815,
      "Ġinferiori": 8816,
      "ĠQualora": 8817,
      "Ġampi": 8818,
      "Ġcassa": 8819,
      "Ġdenominazione": 8820,
      "ĠSand": 8821,
      "Ġprevisioni": 8822,
      "ye": 8823,
      "Ġanimale": 8824,
      "!)": 8825,
      "Durante": 8826,
      "Ġaiuti": 8827,
      "URO": 8828,
      "base": 8829,
      "Ġesseri": 8830,
      "VD": 8831,
      "Ġarrivano": 8832,
      "Ġmatematica": 8833,
      "Ġaccen": 8834,
      "Ġesemplari": 8835,
      "ĠRete": 8836,
      "Ġqualificazione": 8837,
      "INIS": 8838,
      "articoli": 8839,
      "Ġregolamenti": 8840,
      "ettiva": 8841,
      "Ġinquad": 8842,
      "Ġaereo": 8843,
      "Ġscritte": 8844,
      "Ġsubi": 8845,
      "Ġtener": 8846,
      "stati": 8847,
      "Ġcominciare": 8848,
      "rarsi": 8849,
      "Ġpossiede": 8850,
      "ĠSiena": 8851,
      "ĠBerlino": 8852,
      "Ġsanzione": 8853,
      "ĠBatti": 8854,
      "Ġnews": 8855,
      "Ġcanali": 8856,
      "Ġlenta": 8857,
      "Ġcorrispondenza": 8858,
      "ettando": 8859,
      "Ġartistica": 8860,
      "gliate": 8861,
      "Ġricordi": 8862,
      "Ġtorre": 8863,
      "Ġquantita": 8864,
      "ettata": 8865,
      "ĠRadio": 8866,
      "Ġculture": 8867,
      "Ġeventuale": 8868,
      "Ġus": 8869,
      "Ġcominciato": 8870,
      "ĠNet": 8871,
      "provincia": 8872,
      "blog": 8873,
      "Ġdormi": 8874,
      "Ġzo": 8875,
      "ĠINTER": 8876,
      "Ġtemporanea": 8877,
      "Ġconversione": 8878,
      "Ġmoderni": 8879,
      "Ġintrodotto": 8880,
      "Ġfreddo": 8881,
      "Ġintegrazioni": 8882,
      "Ġnipo": 8883,
      "ĠUtente": 8884,
      "Ġmoderno": 8885,
      "Ġcrescente": 8886,
      "Ġ1973": 8887,
      "Ġarma": 8888,
      "temi": 8889,
      "Ġagire": 8890,
      "duca": 8891,
      "tine": 8892,
      "immigrazione": 8893,
      "Ġchiamati": 8894,
      "Ġcontratta": 8895,
      "Ġmeccanismi": 8896,
      "Ġcanta": 8897,
      "Ġobbligatoria": 8898,
      "Ġlettore": 8899,
      "Ġreper": 8900,
      "cologia": 8901,
      "zionario": 8902,
      "Ġtrans": 8903,
      "filo": 8904,
      "Ġarchitett": 8905,
      "Ġpatto": 8906,
      "Ġspero": 8907,
      "pla": 8908,
      "orario": 8909,
      "Ġaus": 8910,
      "ĠBea": 8911,
      "ĠOpen": 8912,
      "stein": 8913,
      "Ġiscrizione": 8914,
      "appar": 8915,
      "Ġslo": 8916,
      "ĠSvizzera": 8917,
      "Ġsaputo": 8918,
      "Ġappartenenza": 8919,
      "ĠAltre": 8920,
      "elice": 8921,
      "ĠNello": 8922,
      "Ġgiardino": 8923,
      "Ġformare": 8924,
      "Ġlimitata": 8925,
      "Ġportando": 8926,
      "Ġserio": 8927,
      "Ġovest": 8928,
      "Ġtreno": 8929,
      "Ġcompiere": 8930,
      "gone": 8931,
      "cherÃł": 8932,
      "Ġaudio": 8933,
      "iore": 8934,
      "gressi": 8935,
      "Ġconsecu": 8936,
      "Ġimpiego": 8937,
      "Ġottimo": 8938,
      "Ġvenuto": 8939,
      "Ġoccor": 8940,
      "ttle": 8941,
      "Ġdettaglio": 8942,
      "Ġlettori": 8943,
      "nei": 8944,
      "ĠSuccessivamente": 8945,
      "belle": 8946,
      "Ġformativo": 8947,
      "Ġterres": 8948,
      "ĠBrescia": 8949,
      "tegoria": 8950,
      "Ġdecine": 8951,
      "Ġtavola": 8952,
      "Ġsciopero": 8953,
      "pendenza": 8954,
      "Ġrealizzate": 8955,
      "Ġrese": 8956,
      "ĠCroce": 8957,
      "Ġpreo": 8958,
      "Ġvolumi": 8959,
      "Ġimperia": 8960,
      "Ġrifiuta": 8961,
      "kin": 8962,
      "Ġabbra": 8963,
      "Ġdeterminata": 8964,
      "ford": 8965,
      "vision": 8966,
      "Ġriuscire": 8967,
      "scuola": 8968,
      "Ġstima": 8969,
      "Ġrifiuto": 8970,
      "ranei": 8971,
      "uca": 8972,
      "ĠMy": 8973,
      "To": 8974,
      "Ġimpegnati": 8975,
      "ther": 8976,
      "Ġsottolineare": 8977,
      "tismo": 8978,
      "Questo": 8979,
      "Ġripri": 8980,
      "Ġnormali": 8981,
      "canze": 8982,
      "Ġagricole": 8983,
      "disce": 8984,
      "ĠWashington": 8985,
      "Ġ120": 8986,
      "ĠLEG": 8987,
      "Ġpropon": 8988,
      "giano": 8989,
      "Ġnetta": 8990,
      "Ġmangiare": 8991,
      "colari": 8992,
      "Ġdebito": 8993,
      "Ġradici": 8994,
      "ĠAtti": 8995,
      "Ġpienamente": 8996,
      "Ġmettendo": 8997,
      "Ġeredi": 8998,
      "terale": 8999,
      "presidente": 9000,
      "imperatore": 9001,
      "Ġgigante": 9002,
      "ĠViene": 9003,
      "GA": 9004,
      "Ġinterne": 9005,
      "Ġproduttore": 9006,
      "Ġalte": 9007,
      "ttorie": 9008,
      "Ġsvolgono": 9009,
      "Ġesteri": 9010,
      "Ġapproccio": 9011,
      "Ġcostruita": 9012,
      "ENTO": 9013,
      "Ġcervello": 9014,
      "liamo": 9015,
      "Ġlicenza": 9016,
      "ĠWe": 9017,
      "Ġedili": 9018,
      "tern": 9019,
      "Ġcifra": 9020,
      "Ġpersi": 9021,
      "Ġcliente": 9022,
      "online": 9023,
      "Ġvisibile": 9024,
      "Ġavrei": 9025,
      "Io": 9026,
      "gino": 9027,
      "Ġliberali": 9028,
      "film": 9029,
      "effica": 9030,
      "Ġquindici": 9031,
      "ĠCra": 9032,
      "Ġtocca": 9033,
      "Ġtuttora": 9034,
      "Ġprecedentemente": 9035,
      "Ġ56": 9036,
      "Ġcari": 9037,
      "ĠCatania": 9038,
      "Ġcomi": 9039,
      "topic": 9040,
      "tions": 9041,
      "Ġscanda": 9042,
      "ĠConcorso": 9043,
      "Ġsorte": 9044,
      "Ġtappa": 9045,
      "Ġvittima": 9046,
      "Ġarro": 9047,
      "Ġimpianto": 9048,
      "ĠWar": 9049,
      "Ġiniziare": 9050,
      "assemblea": 9051,
      "gerÃł": 9052,
      "ĠContin": 9053,
      "ghese": 9054,
      "ziati": 9055,
      "ĠStatuto": 9056,
      "emer": 9057,
      "usse": 9058,
      "ĠUfficio": 9059,
      "Ġagen": 9060,
      "Ġ---------------------------------": 9061,
      "Ġinterpretato": 9062,
      "ĠDomenico": 9063,
      "ĠPio": 9064,
      "ĠCostan": 9065,
      "Ġfinanza": 9066,
      "remmo": 9067,
      "Ġ1970": 9068,
      "tralia": 9069,
      "ĠCastel": 9070,
      "Ġprofon": 9071,
      "Ġconcernenti": 9072,
      "Ġformativi": 9073,
      "ĠCanada": 9074,
      "interpretazione": 9075,
      "Ġinedi": 9076,
      "Ġbasata": 9077,
      "Ġascoltare": 9078,
      "Ġnottu": 9079,
      "ssolu": 9080,
      "Ġgaranzie": 9081,
      "Ġintrodu": 9082,
      "Ġportano": 9083,
      "=\"": 9084,
      "Ġpane": 9085,
      "Ġ52": 9086,
      "Ġteatrale": 9087,
      "Ġlimitato": 9088,
      "Ġandre": 9089,
      "Åį": 9090,
      "Ġtraduzione": 9091,
      "Ġolimpi": 9092,
      "ĠDar": 9093,
      "Ġcensi": 9094,
      "Ġallesti": 9095,
      "Ġottenne": 9096,
      "mosi": 9097,
      "ML": 9098,
      "Ġtradizioni": 9099,
      "tamenti": 9100,
      "Ġalza": 9101,
      "Ġdestinata": 9102,
      "Ġreperi": 9103,
      "Ġurbani": 9104,
      "ĠMax": 9105,
      "Ġzero": 9106,
      "Ġmerci": 9107,
      "Ġterre": 9108,
      "ficano": 9109,
      "Ġsorve": 9110,
      "Ġintesa": 9111,
      "Ġ1972": 9112,
      "Ġlargo": 9113,
      "evo": 9114,
      "Ġcomprensione": 9115,
      "Ġconcerne": 9116,
      "Ġved": 9117,
      "Ġvenditore": 9118,
      "Ġrecuperare": 9119,
      "ak": 9120,
      "Ġdecorrere": 9121,
      "Ġautonomo": 9122,
      "URA": 9123,
      "hanno": 9124,
      "Ġnazione": 9125,
      "Ti": 9126,
      "Ġ800": 9127,
      "Ġprevia": 9128,
      "Ġcompagno": 9129,
      "Ġ600": 9130,
      "insta": 9131,
      "Ġministeriale": 9132,
      "ĠSegretario": 9133,
      "carlo": 9134,
      "sime": 9135,
      "ĠAfrica": 9136,
      "Ġcomplessa": 9137,
      "Ġcalcola": 9138,
      "ĠMona": 9139,
      "Ġriconosce": 9140,
      "mista": 9141,
[...]
